de
die
in
een
het
und
van
en
der
is
dat
te
das
zu
ist
je
es
ich
wir
ik
we
als
er
Und
sie
von
Sie
ein
eine
dass
op
was
den
zijn
niet
om
--
nicht
ze
met
mit
Ik
voor
wie
auf
Ich
Het
sich
man
wat
für
En
aan
dit
Das
naar
deze
over
um
Es
hier
so
sind
dan
diese
maar
an
dem
-
im
wenn
We
haben
hebben
einen
of
Wir
des
war
De
"@@
kunnen
♫
mijn
mensen
über
Die
uns
door
oder
Maar
Dit
kan
einer
ons
Aber
ver@@
alle
einem
aber
andere
Er
ist,
auch
sehr
Ze
uit
aus
-@@
Dat
ook
nur
hij
en,
–
Als
werden
In
zou
dann
geen
hat
en.
waar
al
t,
t.
zo
ge@@
,
hoe
.
ten
nog
hun
gibt
also
meer
noch
onze
er@@
dieser
tot
be@@
me
bij
jaar
mich
?
Je
etwas
t
können
nach
heeft
kann
Dus
veel
Menschen
wird
habe
nu
Wenn
:
waren
iets
heb
an@@
jullie
bei
zien
mehr
alles
s
s,
wirklich
Hij
s.
zum
op@@
zal
moeten
dingen
zijn.
mir
s@@
Hier
."
Welt
e
omdat
is.
weil
ist.
Ihnen
echt
ben
in@@
gaan
dus
en@@
heel
wereld
on@@
dieses
am
durch
worden
zoals
paar
moet
vor
immer
had
'@@
TED
Wat
doen
wil
zich
één
diesem
keine
gaat
twee
Een
Was
Also
da
viel
sehen
d
diesen
is,
"
ein@@
meine
unsere
ihre
d.
Leute
viele
anderen
k@@
eines
leven
t@@
and
wordt
daar
alleen
zwei
e,
kleine
uit@@
ung
denk
eerste
ging
aan@@
Art
wo
ab@@
wurde
...
einfach
Der
un@@
d@@
sein
auf@@
maken
Wie
dies
goed
d,
haben,
laten
haar
jetzt
u
soort
weet
werd
bis
ing
Zeit
e.
zur
Leben
af@@
bin
erg
aus@@
ihr
Talk
manier
grote
ten,
toen
Subtitles
Transcript:
Dinge
hele
st@@
du
g@@
er,
Jahren
Ver@@
nieuwe
S@@
p@@
allemaal
damit
en?
tijd
sch@@
Jahre
denken
ten.
ter
haben.
mij
e@@
müssen
Man
te,
wel
zijn,
a
A@@
hatte
m@@
zouden
all
sind,
K@@
doen.
er.
f@@
machen
re@@
!
ende
sind.
denn
hem
E@@
de@@
schon
ent@@
mein
?"
a@@
10
zullen
h@@
P@@
T@@
vier
o@@
per
over@@
muss
werden.
den,
zu@@
kinderen
dort
selbst
vielleicht
b@@
einige
sehen,
z@@
war,
ganz
ihnen
kunt
ische
Deze
want
na
i
wissen
st
tatsächlich
her@@
te.
geht
komt
An@@
weten
wieder
können.
i@@
hen
ongeveer
de,
es,
B@@
drie
al@@
o
ga
da@@
werde
den.
Nun,
seine
drei
n@@
willen
über@@
würde
or@@
ob
nicht,
vor@@
ie.
iert
staat
eens
Sch@@
ing.
ihn
misschien
tun
y
heute
20
anders
wij
iemand
om@@
zelfs
Diese
Be@@
ieren
net
;
kon
zeer
gewoon
nun
komen
werk
ige
gen
hadden
ung,
Sie,
möchte
ch@@
idee
tegen
le@@
Kinder
c@@
ie
tussen
voor@@
Dies
ste
ischen
lang
ie,
ziet
an,
denen
verschillende
genau
sein.
ungen
vom
neue
um@@
ar@@
end
gut
unserer
R@@
Geschichte
se
davon
Jahr
nooit
meiner
sten
ung.
dag
eigen
können,
el@@
's
zeggen
Hoe
ing,
hebben.
u@@
ken
Ein
hat,
Teil
y@@
F@@
onder
k
sondern
zei:
deel
kein
".
maken.
nodig
ich,
r@@
w@@
zien.
M@@
ont@@
elkaar
L@@
mal
ie@@
wanneer
sein,
keer
unter
elke
H@@
gerade
eigenlijk
mee
ma@@
Er@@
hebt
weg
zwischen
plaats
zie
G@@
W@@
C@@
werden,
zonder
darüber
Millionen
sagen,
l@@
zij
den@@
was.
de.
ohne
O@@
sp@@
waarom
Eine
et@@
men
at@@
kann.
ro@@
laat
altijd
Nu
an.
hat.
steeds
N@@
is@@
miljoen
Toen
jaren
m
'
ingen
isch
land
ziemlich
onder@@
stellen
niet.
en:
ganze
sogar
gab
ihren
macht
lange
machen.
zei
vraag
Afrika
letzten
worden.
während
st,
gehen
igen
jeder
terug
erste
warum
eren
D@@
wird.
en."
it@@
Ab@@
te@@
ter@@
etwa
kwam
ersten
Mijn
ur@@
aantal
New
einmal
zo'n
der@@
beetje
Re@@
ieren,
ik@@
kijken
ss@@
So
100
af
goede
unser
sagen
was,
kommen
große
verhaal
ger@@
wilde
et
iedereen
nicht.
ern
laatste
50
",
Ihre
sieht
Op
Prozent
nie
geven
n
hatten
30
Ge@@
Ein@@
meisten
welche
beginnen
ieren.
ing@@
meest
zodat
Vor@@
dazu
a,
gel@@
könnte
st.
gebruiken
sagte
sen
war.
geld
kommt
gen,
n,
weer
beste
vinden
probleem
Beispiel
ig@@
procent
nichts
I@@
gen@@
geleden
technologie
doen,
volgende
Also,
k.
ten@@
Dan
wissen,
zit
kann,
wird,
meinem
ungs@@
elk
hoop
na@@
wereld.
wäre
Problem
v@@
allen
sagte:
hebben,
je,
kleinen
Tag
ins
ne@@
konden
Z@@
water
beter
binnen
slechts
Aus@@
wa@@
reden
niemand
Arbeit
ra@@
ihrer
das,
weg@@
werken
wurden
ei@@
ale
eigentlich
dafür
enkele
maakt
geb@@
zen
am@@
dezelfde
iert.
machen,
ding
groot
echte
even
ge
gen.
Menge
door@@
helemaal
krijgen
zelf
Dann
enden
la@@
15
ja,
Bild
a.
begon
vandaag
meinen
weiter
doet
ck@@
ganzen
menselijke
ooit
Dollar
proberen
el
hier,
waarin
denke,
gemacht
minder
ander
toe
k,
kl@@
aus.
Le@@
genoeg
großen
hin@@
V@@
Denn
iert,
lich
samen
t:
will
Dank
moment
m,
chen
dollar
ig
gingen
keinen
niets
to@@
terwijl
waarop
men@@
sehen.
atie
St@@
belangrijk
Frage
kam
natürlich
betekent
doch
klein
Ende
glaube,
tun,
unter@@
enige
meeste
Im
Un@@
ier@@
kt
weniger
Idee
eten
g
g.
t?
dabei
g,
ha@@
mo@@
z
me@@
moest
wer@@
Geld
unseren
ken,
ken.
Ihr
di@@
ik,
pro
lijkt
Omdat
Want
ber@@
es.
Zo
Wasser
geeft
ungefähr
ver
„@@
zien,
Daar
In@@
ihm
n.
ster@@
denke
zurück
"Ik
gemaakt
jemand
sagte,
Weg
il@@
vertellen
ru@@
weiß
Al@@
Land
waarschijnlijk
eren.
j@@
seit
bare
deed
grootste
jeden
Ja,
gaan.
he@@
zeker
leven.
vragen
problemen
terug@@
würden
CA:
gute
indem
Ma@@
geben
seiner
snel
ungen,
denken,
mogelijk
tun.
J@@
wollen
ings@@
vielen
Seite
ste@@
40
gibt,
ko@@
se@@
leren
ene
ster
bent
dacht
jedes
ja
rond
ig.
Menschen,
besser
f
vele
lo@@
ierte
sollte
sollten
uur
Jetzt
ers
natuurlijk
Da
ch
Mal
graag
tweede
daran
we@@
eigenen
ist@@
op.
wahrscheinlich
Auf@@
ation
darauf
gegen
ies
bijna
jaar.
ts@@
vaak
bo@@
h
ho@@
mit@@
Mar@@
etwas,
vijf
m.
waren.
wollte
wenig
"Ich
fast
glaube
rei@@
Erde
punt
ä@@
Technologie
liche
on
Sp@@
Weise
lichen
p
zag
hier.
verder
zoveel
durch@@
landen
nehmen
us
eerst
konnte
Waarom
miljard
hetzelfde
do@@
fünf
gebeurt
ingen.
systeem
2
beim
3
seinen
ul@@
zegt
ig,
l
vorm
bisschen
delen
lassen
ij@@
nächsten
ut@@
aal
neuen
Zukunft
gesch@@
iger
man@@
3@@
Voor
toch
zusammen@@
Daten
in,
Met
ze@@
nemen
ti@@
kennen
Dinge,
uit.
werkt
Du
[@@
bekommen
el,
ben@@
brauchen
cht@@
ideeën
passiert
.@@
Sache
achter@@
beeld
komen.
maken,
2@@
Vielen
alen
energie
foto
wer
jede
kind
staan
zurück@@
Weil
informatie
ben,
habe,
sen@@
waren,
ic@@
in.
wurde.
De@@
Person
hand
ken@@
Wissen
bel@@
em
recht
Milliarden
finden
ischer
oude
ruimte
au@@
gt
soorten
houden
begonnen
gebruik
Nun
persoon
unserem
zitten
anzu@@
groep
Zij
ge,
je.
kt@@
oft
wir,
ant@@
fen
Planeten
ser@@
so@@
ik.
im@@
sommige
Warum
acht
begrijpen
doe
ervan
et,
mag
pro@@
tijdens
Probleme
aus,
buiten
zes
Wij
begin
ens@@
leben
deren
enorme
ingen,
oren
Dank.
hier@@
ts
wegen
welke
Of
ssen
ap@@
gebruikt
precies
s-@@
Laten
ag@@
ben.
del@@
ien
men.
sociale
Om
heid
nach@@
sa@@
weit
zichzelf
Welt.
erst
men,
on,
tes
toe@@
vind
euch
ol@@
per@@
sc@@
us@@
achter
gehen,
könnten
York
gesehen
interessant
nen
kt.
bij@@
du@@
schnell
toekomst
!"
licht
namens
bar@@
on.
vond
Welt,
isches
jes
seinem
Über@@
kans
ungen.
Meine
]
ert
irgendwie
Gehirn
einigen
zeigt
Frauen
Raum
aarde
ge.
kracht
lei@@
sagt
bereits
boek
data
moeilijk
Ideen
bevor
par@@
zeigen,
Ar@@
Mensen
Zu@@
hatte,
jij
ven
Kind
Mit
arbeiten
sie,
6
Fall
blijven
et.
ihrem
man,
ter,
y,
25
Amerika
Arten
beide
gedaan
kreeg
plek
wurde,
best@@
gehen.
ac@@
dachte
dingen.
ierten
kt,
me,
wereld,
werk@@
Mann
beiden
f.
dr@@
feite
genug
ot@@
später
ak@@
huis
kant
zorgen
überall
1
interessante
vanuit
zeigen
China
Natur
geloof
ens
geven.
vrouwen
dieren
eerder
en-@@
kon@@
menschlichen
5
bei@@
sin@@
bringen
el.
geben,
maakte
stuk
elle
later
so,
war@@
Al
Mo@@
ker@@
Energie
em@@
kun
planeet
verschiedene
vrouw
Dieses
Dus,
gerne
'.
auszu@@
ve@@
vor,
werken.
Mutter
gar
hin
kijkt
stad
Grund
dagen
derde
enkel
li@@
begann
geben.
krijgen.
le,
Chris
Leuten
b
kom@@
kwamen
ri@@
weiß,
zo@@
ger
is:
vroeg
Für
Ort
all@@
cht
duidelijk
verhalen
Niet
ent
gezien
hal@@
mensen.
verschiedenen
volgens
4
7@@
gra@@
stellen.
zaken
Design
innerhalb
zusammen
halten
hätte
meine,
mir,
school
5@@
Alles
Frau
Zoals
antwoord
mer@@
worden,
y.
aten
nieuw
ung@@
versch@@
boven
heraus@@
kijk
ir@@
wichtig
einzige
tra@@
ze,
qu@@
12
Auf
Bilder
denkt
eren,
sprechen
vooral
zei,
200
Alle
Oder
U@@
besonders
hel@@
meter
teren
4@@
baar
bepaalde
brengen
kommen.
onderzoek
6@@
Misschien
besten
chten
uns,
manieren
sechs
gest@@
ke
kte
ur
voorbeeld
zeggen:
der,
uiteindelijk
ds
krijgt
pa@@
wist
Indien
Wissenschaft
auf,
ell@@
i.
lich@@
met@@
sah
Moment
aller
br@@
da,
denken.
je@@
pen
praten
Amerikaanse
ne
oo@@
Leute,
System
aan.
ad@@
ange@@
geval
gleichen
lan@@
soms
wetenschap
alsof
end.
gebied
gibt.
les
mee@@
oben
60
al.
dan@@
po@@
vrij
wen@@
zen@@
Buch
aa@@
lich.
no@@
verstehen,
vol@@
zer@@
ü@@
Körper
Ro@@
finden,
gro@@
waar@@
heet
heißt
wi@@
Stadt
ere
ft
los
wor@@
India
as
ellen
gevoel
wei@@
18
Fragen
Gruppe
kan@@
project
8
habe.
i,
oe@@
Computer
anderes
as@@
bringen.
co@@
leven,
1@@
Ne@@
al,
heid.
Minuten
s:
si@@
Antwort
Zeit,
bedrijf
film
ft@@
han@@
jaar,
ker
menschliche
wollen,
Mein
Waar
heid,
maanden
schen
su@@
versuchen
zwar
18@@
Wanneer
eigen@@
lichaam
mar@@
samen@@
gleich
zeg
Form
chen,
f,
fa@@
hand@@
le.
me.
richtig
tel@@
weitere
überhaupt
Dieser
En@@
Nach@@
ein.
geschiedenis
jedem
moeder
waarvan
USA
Um
belangrijkste
hoeveel
hoofd
krijg
o,
open
Eén
bestaat
lie@@
mat@@
naam
wereld@@
Punkt
eerd
helpen
juiste
ke@@
lu@@
mich,
8@@
bijvoorbeeld
die,
ff@@
ment@@
möglich
stand
van@@
d?
dich
gemacht.
ss
volledig
würde,
e-@@
gang
mensen,
nogal
pp@@
Her@@
bar
isch.
stre@@
Doch
Verenigde
basis
ck
ein,
geh@@
minuten
vormen
God
alten
heen
moesten
mooie
sk@@
Geschichten
Gott
Pro@@
also,
bu@@
enen
gaan,
hatte.
o.
water@@
wel.
zetten
gleiche
machte
nämlich
plaatsen
stellt
verstehen
vinden.
end@@
heraus,
land@@
nächste
stehen
wel@@
würde.
Se@@
Unter@@
cht.
eher
en?"
muziek
welches
za@@
zon@@
binnen@@
dig
ier
liegt
opnieuw
Is
Vielleicht
alles,
chen.
eh@@
mannen
ran@@
vast@@
wohl
80
Informationen
Lebens@@
Schule
verschil
vier@@
deden
es@@
land.
musste
begint
w
waarmee
wir@@
mens
sten,
weiter@@
Kon@@
and@@
eerde
gesagt,
glauben,
gt.
sei
ö@@
Spiel@@
cht,
hersenen
ven@@
500
Daarom
Grunde
Stück
Vor
daar@@
ern@@
ogen
via
woord
allerlei
beelden
kende
tegen@@
veranderen.
zegt:
Da@@
Gen@@
Mädchen
gew@@
overal
Film
Lassen
Zeit@@
ba@@
bezig
bi@@
sagen:
super@@
waarbij
Au@@
Kijk
afgelopen
bedeutet
bringen,
eigene
h,
konnten
ta@@
tet
ze.
ß@@
David
Internet
Na
kommen,
pt
sten.
aar@@
manchmal
weg.
Licht
Stunden
het.
kor@@
z,
zei@@
7
Ist
Kindern
Musik
Universum
Y@@
bouwen
gener@@
lassen.
Bo@@
auf.
langer
licher
sich,
inter@@
liches
ter.
vol
Projekt
gef@@
ieder
letzte
niet,
sicher
sto@@
Gebäude
Laat
den?
dig@@
einde
ell
feit
for@@
foto's
markt
steht
zat
zin
Bei
Google
geht,
geweldige
op,
rest
sl@@
tu@@
eer@@
natuur
obwohl
tr@@
alt
bil@@
werkelijk
Gra@@
aufzu@@
ste,
voedsel
x@@
dar@@
elen
ment
t."
uren
weinig
weiter.
9@@
Mars
Nicht
Tiere
dem,
ergens
gehört
isten
kaart
lich,
lin@@
proces
schauen
19@@
Lage
braucht
ed@@
eert
jedoch
kom
sel@@
sen.
voordat
wilden
Co@@
Gesellschaft
Mon@@
dachten
kosten
model
or
sprechen,
Grund@@
Kopf
doel
fer@@
gt,
tro@@
bewegen
dat,
DNA
Di@@
Onze
con@@
dir
direkt
funktioniert
her
kleiner
nodig.
pas
um,
veranderen
win@@
Ja.
atie.
erin
gegevens
it
komen,
nehmen,
s?
unten
uw
Sehen
brein
ga@@
heeft.
houden.
jonge
um.
Ha@@
Welt@@
entwickelt
gebruiken.
hart
levens@@
pl@@
sieben
20@@
To@@
Zum
bedeutet,
bel
belangrijke
els
la
min@@
pf@@
zi@@
Hilfe
Wasser@@
ar
hulp
pre@@
tig
x
zelf@@
än@@
,"
Familie
Ru@@
gebeurde
meines
solche
"Wat
Ook
art@@
damals
geboren
mis@@
sh@@
sie.
Bau@@
ban@@
d-@@
gebouw
geluk
isch,
isch@@
nam
rij@@
sagt,
mu@@
möchte,
werk.
z.
Entwicklung
ausge@@
bl@@
brengen.
eu@@
gedurende
ine
menselijk
sprechen.
Dingen
Par@@
TED-@@
gaf
gek@@
groter
jouw
kijken.
kop@@
rond@@
zweite
Augen
bauen
blijkt
gern
har@@
völlig
Bi@@
Möglichkeit
ach@@
get@@
gut.
land,
müssen,
Hand
Schul@@
Su@@
Van
igkeit
ip@@
rie@@
wollen.
allem
ationen
aufge@@
chte
mp@@
naast
onge@@
unglaublich
verandering
%
',
Denken
Qu@@
Sprache
Zijn
aties
darin
dt
eten.
geweest
heit
kken
kle@@
kunst
är@@
Jullie
ssen.
ven.
vertelt
200@@
Art,
Mit@@
Regierung
ation.
bau@@
computer@@
daarvan
net@@
tern
Ba@@
Kunst
Nou,
könnte.
woorden
Do@@
ele
enorm
fe@@
ft.
gen?
ion@@
kleines
sage
Um@@
Wort
be
midden
pen.
sen,
tje
Anfang
Glück
Haupt@@
bet@@
computer
eruit
finden.
gebracht
geht.
hinter
moderne
Jahren,
Sachen
ation,
ern,
geloven
hätten
kamen
ligt
müssen.
ob@@
recht@@
sche
vrienden
11
Danke.
ab.
ce@@
ch,
dessen
gemeenschap
hören
neemt
onen
verl@@
Ber@@
La@@
ef@@
en;
genauso
km
lijk
links
zeggen,
zeven
9
creëren
einzu@@
end,
gemaakt.
getan
goed.
leuk
mon@@
mooi
stel
300
A
Anzahl
Europa
Lebens
Ten
bedrijven
genaamd
houdt
kommt,
oud
sehr,
slecht
ste.
Meer
auto
besch@@
ch.
darüber,
elt
ervaring
gelijk
t-@@
tijd@@
vertelde
,@@
Auto
Länder
Reihe
a-@@
arm
der.
geef
kun@@
kurz
tijd.
wij@@
zen.
Te@@
age
halten.
hei@@
ies.
o-@@
oceaan
zen,
anderer
führen
gr@@
natuurlijke
nemen.
studenten
wurden.
Door
Weet
ber
beweging
kennen,
lernen
nahm
sie@@
ton
Geen
Jeder
Niemand
Stellen
atie@@
gende
gesagt
go@@
hoch@@
mogelijkheid
sagt:
taal
universum
Jahren.
das?
duizenden
grotere
stellen,
unseres
wel,
Haus
ant
arbeiten.
id@@
le
macht.
plan@@
publiek
th@@
vader
Iedereen
Unternehmen
aan,
cken
iz@@
langs
maak
open@@
son@@
Man@@
Namen
ist:
kennis
namen
neu
niemals
nimmt
versuchen,
zeigen.
zwei@@
"Was
Bij
OK,
Ta@@
Unsere
alis@@
fand
fest@@
glauben
leerde
nieuws
p.
sinds
testen
"H@@
Afrika.
betere
dige
hou@@
miljoenen
prijs
spelen
stu@@
vast
zo.
John
Vater
Verbindung
ander@@
bro@@
economische
gan@@
grond
größten
ies@@
jemals
meestal
stond
Ja@@
Oberfläche
Rück@@
Tage
Viele
We@@
at
ex@@
fil@@
hu@@
ierung
ies,
iss@@
kel@@
ne,
onszelf
opge@@
organis@@
schaffen
schreef
teil@@
toont
weken
wäre,
zehn
zoeken
Gegen@@
Vortrag
dass,
doen?
eln
erde
fanden
gesamte
groß
ill@@
mel@@
schwer
sse
stellte
u.
Po@@
War@@
bouwen.
enz@@
fe
fragen
gel
größte
hatten.
stell@@
stra@@
voll
waardoor
90
Schauen
bringt
d:
dachte,
ervoor
liet
slechte
tonen
ur.
10.000
Nu,
Or@@
Ziel
app@@
eins
ep@@
familie
fantastische
hatten,
kar@@
kken.
korte
se,
sta@@
team
verloren
will,
wilt
zeiden:
Car@@
Fa@@
Neu@@
aat
ab,
anders.
berei@@
cellen
einander
falls
gev@@
gi@@
jou
maakten
mer
vonden
Vereinigten
Woche
arbeiten,
bekend
daran,
dood
führt
gend
genen
ks
noemen
vermogen
weer@@
bekommen.
gedrag
helft
hoe@@
i-@@
ien.
p,
ssen,
vo@@
Energie@@
Macht
Monate
bedoel,
best
drei@@
fr@@
geluid
hoch
internet
ka@@
macht,
olie
ouders
waarde
Ihren
TED@@
Terwijl
einge@@
erkennen,
kennen.
kn@@
lucht
normale
spiel@@
For@@
ab
bracht
die@@
ft,
igen,
nutzen
stap
structuur
week
wunder@@
zeit
Bu@@
Größe
Met@@
Meter
Sinn
So@@
bla@@
ce
erop
geven,
guten
halen
hoofd@@
rechten
regels
Ch@@
Natürlich
Richard
ation@@
davon,
dor@@
ges@@
geweldig
ook,
tre@@
ve
verb@@
versucht
Eltern
Gefühl
Hause
Paul
Ste@@
Von
Wer
Wochen
cher
delen.
deshalb
ding.
e:
iere
klaar
lang@@
lopen
vanaf
"De
CO2
San
denk@@
ec@@
eerd.
gebieden
genommen
helfen
leben.
zon
ans
auch,
bekommen,
digen
druk
eld
fen,
handen
kten
ler@@
wür@@
“@@
…
"Das
Hand@@
Kraft
Technik
Unterschied
besteht
bor@@
bra@@
gaat.
gere@@
lassen,
nachdem
ook.
uit,
volle
wo@@
Einige
Liebe
Na@@
Nummer
Verhalten
absolut
bin@@
niet?
ons.
plan
ven,
zee@@
Ho@@
Muster
Nein,
Oh,
Thema
Wal@@
aange@@
darum,
draußen
een@@
machine
miteinander
nennen
soll
tien
uitge@@
ziekte
Ku@@
Rest
af.
alte
ders
einfache
gebaseerd
heden
hr@@
huidige
letterlijk
r
str@@
zel@@
zuvor
Lu@@
Sa@@
Schritt
Teile
aandacht
aller@@
baan
besloot
daraus
design@@
half
iel@@
il
lokale
mache
pt@@
sor@@
spel
197@@
Menschen.
Mil@@
Tatsächlich
Wer@@
bitte
findet
ia
os
passiert,
richt@@
stam@@
star@@
tjes
vat@@
wetenschappers
wichtig,
zeigt,
198@@
Ent@@
Ihrem
Kar@@
Nach
Staaten
Stel
ator
blijft
buiten@@
dazu,
energie@@
ess@@
fahren
fel@@
geleden,
meer.
so.
sonst
verhaal.
vindt
wordt.
zeiden
Gedanken
Ju@@
Mitte
Veel
Zelfs
abzu@@
bestaan
geest
großer
mussten
ou@@
schließlich
steden
tie@@
All
Bill
Computer@@
Ihrer
Krieg
Super@@
darum
det
dung
fen.
heit.
herum
horen
kommt.
liebe
möglichen
oorlog
ort
pass@@
passiert.
plötzlich
rechts
rot@@
spielen
ten?
theorie
werkt.
400
Am
Rei@@
atie,
bent,
boeken
bouw@@
danach
economie
eel
gedaan.
id
istische
ku@@
nehmen.
neues
pr@@
rit@@
vel@@
zin@@
16
24
Atom@@
Autos
Nog
aren
dafür,
daß
ds@@
en"
evolutie
gebracht.
globale
hebt,
ich@@
licht@@
soziale
äu@@
Spiel
Video
arme
dann,
dern
ente
erkennen
huis@@
ien,
ja@@
leer@@
mm@@
richtige
test
tete
zowel
Essen
Freunde
Preis
che
gaat,
gebeuren
hoge
hol@@
kr@@
lucht@@
lässt
materiaal
middelen
voort@@
werken,
zurück.
At@@
Blick
Karte
Kl@@
Ko@@
Luft
On@@
Zeit.
cultuur
das.
des@@
enten
eraan
gevallen
ging,
iker
kregen
lijn
online
relatie
thuis
tijd,
voor.
zet
"W@@
199@@
Deshalb
He@@
Lösung
Mor@@
Richtung
anstatt
baren
bepaald
da.
design
doet,
hast
hersen@@
kk@@
könnte,
leu@@
liefde
ma
rau@@
sagen.
schu@@
tan@@
und@@
wieder@@
ziehen
Afrika,
Kor@@
Land@@
Ra@@
VS
Vorstellung
Wirtschaft
alle@@
bauen.
ca.
daadwerkelijk
gestellt
heit,
het,
honderden
komt.
regel@@
staan.
tief
wetenschappelijke
10@@
Dr.
Grund,
Studenten
bedoel
begrijpen.
belang
bewegen.
biologische
den:
falsch
gelukkig
grootte
h.
komende
leben,
mal@@
namelijk
plekken
richting
schie@@
setzen
vis@@
Bewegung
Design@@
Eines
Gel@@
Groß@@
James
Me@@
dig.
gegeven
gesp@@
had.
ijs
kilometer
ne.
spel@@
stop@@
vertellen.
vrij@@
wal@@
zeige
C
Charles
Leben.
Markt
U
Ur@@
bist
brengt
ci@@
einzelne
ger,
geworden
geïnteresseerd
kanker
oog@@
prachtige
scheint
stoppen
technologie.
ur,
video
zitten.
"Het
Ding
Foto
Meinung
Per@@
Technologien
bewust
eeuw
fahr@@
fol@@
fragte
funktioniert.
geleden.
iteit
kunst@@
los@@
ms
neu@@
seh@@
verk@@
Bar@@
Boden
Dinge.
Evolution
Hälfte
alt@@
eenvoudige
entwickeln
er-@@
fl@@
gelijk@@
gesehen,
hervor@@
hou
iedere
ion
noemen.
plaats@@
stro@@
voelen
zwe@@
Bet@@
Nee,
aal.
aar
chten,
hen.
ide@@
neem
ologie
sicher,
stap@@
to
verstehen.
vinden,
zagen
ür@@
Ka@@
OK.
Sie@@
daarna
daarom
ich.
if@@
komt,
lichkeit
mezelf
mü@@
onderwijs
ontwerpen
oog
probleem.
vriend
ät@@
Denk
Kultur
Lehr@@
Mensch@@
Patienten
Sonne
Tat
außer
bewe@@
erd
ern.
halen.
hart@@
konnte.
kort
krijgen,
legt
leiden
mass@@
oor@@
programma
raa@@
zoek
Geschichte.
Prozess
Wahrheit
Während
ang@@
ast@@
dra@@
erzählen.
icht
immer,
leicht
mach@@
moe@@
niveau
om.
or,
probeer
wurden,
"A@@
.“
70
Idee,
Modell
Nor@@
alles.
bru@@
dank
din@@
konnte,
lij@@
ontwerp
ontwikkeling
oplossing
schaal
stelt
tische
voller
"Oh,
I
Ihnen,
Sen@@
benutzen
ding,
gele@@
gemacht,
hinter@@
hoeveelheid
jemanden
keek
komplett
lijken
os@@
over.
schaffen,
ums
van.
versie
vi@@
zekere
Aan
Regeln
bestimmten
chen@@
chten.
don@@
ers,
gar@@
gl@@
gut,
kost
lang.
omgeving
son
spelen.
te:
tragen
us.
wijze
...@@
Frage,
Heute
Hu@@
Situation
Staten
cke
dingen,
eind
gebaut
genetische
geworden.
ging.
gu@@
industrie
kam,
kinder@@
klein@@
mogelijkheden
mor@@
nahmen
neer@@
oper@@
richtigen
tsch@@
wet@@
's,
Bereich
Ker@@
Natur@@
Reise
digitale
geleerd
ges
inspir@@
jezelf
leg@@
ler
lijke
miss@@
pun@@
rol
ters
voel
voorbeelden
/@@
Ban@@
Du@@
Ok,
Sache,
Veränderung
Wirklichkeit
dru@@
gemiddelde
halten,
heeft,
heiten
houd
ität
s."
san@@
sehe
sn@@
Auch
Con@@
DH:
Sommige
Team
Zahl
aal@@
bauen,
daher
ehr@@
er:
führen.
glücklich
kre@@
mut@@
nicht@@
schei@@
se.
sla@@
sle@@
ständig
wellicht
zetten.
"Wie
BF:
Elke
Erfahrung
Firma
Geschäfts@@
HIV
Nur
behalve
benen
davon.
eben
eten,
gebeuren.
groot@@
kend
leidt
ma,
redenen
sche@@
scho@@
sten@@
sterben
verändert
voll@@
wan@@
welcher
wollten
-S@@
Br@@
Hoch@@
Kat@@
Ländern
Million
ati@@
bit@@
blij
erzählen,
extra
fin@@
gleich@@
hab@@
heißt,
jes.
leggen
ongelooflijk
oren.
schön
ser
sterk
top
weise
werkte
zumindest
Eis@@
Har@@
National
Tages
ass@@
be,
eg@@
erreichen
hy@@
innen
kal@@
kin@@
kinderen.
lage
ontwikkelen
sagten
schrijven
schul@@
tun?
und,
velen
verändern.
zit@@
zuerst
ßen
"Die
No@@
Wor@@
doet.
generatie
gezicht
gleichzeitig
heb@@
igen.
ik:
onderdeel
plat@@
rel@@
schaffen.
school@@
stark
twee@@
wusste
ändern
ï@@
150
Kom@@
Lehrer
Lei@@
absoluut
aten.
bar.
bekommt
bomen
dag,
doo@@
groei
he
ick@@
invloed
nemen,
probeert
reis
sagten,
sam@@
schrieb
spro@@
systemen
ten:
totaal
treffen
werk,
wären
zer
zwarte
16@@
Ex@@
Fähigkeit
Mu@@
Natuurlijk
Wissenschaftler
basis@@
beneden
dier@@
ding@@
ele@@
erzählt
gebruik@@
gewesen
gewone
had,
handel@@
herum@@
kern@@
lagen
langen
länger
meisje
nadat
oppervlak
ster,
tut
tz@@
val@@
Jahrhundert
Krebs
Körper@@
Lo@@
Mc@@
Struktur
Theorie
abge@@
anderen.
ct@@
dier
ers.
gehoord
gesamten
nutzen,
politieke
richten
spricht
stat@@
stel@@
ster.
trotzdem
ure
wachsen
wie@@
ün@@
14
196@@
Hel@@
Kan@@
Platz
Tier@@
brachte
dat@@
dende
even@@
führ@@
kijken,
min
ner
omhoog
rat@@
Anderson:
Arbeits@@
Heel
Min@@
Männer
ang
armen
bie@@
dicht
genomen
gezien.
gratis
kamer
liep
weg,
"Ja,
Aarde
Kur@@
Möglichkeiten
Sk@@
af,
aler
dies@@
effect
ender
ensch@@
gegenüber
hoog
houden,
ihres
irgendwo
let@@
machten
muss.
planten
praat
stan@@
tem
vanwege
Aufgabe
El@@
Leben,
Oké,
drie@@
echter
gene
gezegd
großartige
hoeft
issen
probeerde
situatie
sofort
water.
Öl@@
All@@
Gene
Kinder@@
Mann,
Orte
Tot
av@@
deine
det.
erhalten
geweest.
hn@@
ic
ium
kur@@
muss,
nur,
patroon
rund
sol@@
tung
wichtige
wollte,
ziet,
zijn?
13
Afrikaanse
Bedeutung
Dar@@
Frei@@
Gar@@
Generation
at,
bekannt
bot@@
computers
diep
draa@@
en...
ger.
hard
kra@@
landen.
normalerweise
oder?
om,
ontdekt
persoonlijke
schlecht
simpele
sit@@
te?
uren,
verlie@@
Indi@@
Volgens
Zusammen@@
bin,
chte,
dag.
de:
eller
experiment
gen:
herauszufinden,
iet
interessant.
kopen
kwa@@
län@@
mij.
mt
ontdekte
oren,
ron@@
scher@@
sowohl
va@@
verändern
zelf.
zusammen.
"We
An
Fahr@@
Gu@@
Kosten
Können
Tagen
Tatsache,
Wei@@
Wel@@
Zu
bereit
bestimmte
c
cor@@
e?
helfen,
hiervan
hl@@
icht@@
ja.
log@@
offensichtlich
og@@
re.
rol@@
snelheid
teren.
tig@@
vallen
verbonden
wann
wider@@
wordt,
äch@@
"N@@
600
Einfluss
Fil@@
Wert
aanse
außerhalb
baar.
bewijs
gesehen.
groepen
grün@@
morgen
ologen
teilen
uitdaging
zeggen.
zij@@
“
0@@
Beziehung
Bildung
George
Publikum
Vol@@
Wel,
beginnen.
chemische
dro@@
film@@
fing
größer
idee.
kannst
leek
manier.
praten.
ren
resultaat
schaft
sich.
the@@
verwenden
waarover
will@@
zahl@@
zu.
ß
ähnlich
35
Beispiel,
Erfolg
Freund
Gemeinschaft
Hoeveel
Kunst@@
Mat@@
Stelle
Wo
aal,
acht@@
amerikanischen
baar@@
bijzonder
bio@@
dis@@
fer
gebruiken,
globalen
hi@@
hoewel
ie-@@
internationale
kat@@
kken,
könnten.
lag
mogelijke
ov@@
overheid
produ@@
re,
seines
the
toe.
toegang
vis
voedsel@@
wisten
Bezug
Bücher
Gebiet
Kinder,
Licht@@
Plan@@
Robert
Selbst@@
Version
bedeut@@
bloe@@
eer
elkaar.
erover
erzählen
fundamentele
ist?
mehr.
middel
spielen.
uren.
vers@@
würden.
Ger@@
Grenzen
Gro@@
Ide@@
Mensch
andere,
bang
beginnt
bekam
bessere
blo@@
brand@@
eerd,
fantastisch
kinderen,
leren.
meer@@
neben
nennen.
nou
pen,
pen@@
tliche
verandert
y-@@
DNA-@@
Eis
Los
Prinzip
Universität
Video:
auto@@
bald
che,
daarmee
dragen
fla@@
gebeurt.
gez@@
ien@@
jongen
kaufen
keuze
kiezen
las
pan@@
rechte
selben
spreken
zet@@
zoiets
Alter
Bakterien
Lin@@
Men@@
Nacht
Okay,
Pat@@
Rolle
andere.
are
bacteriën
brachten
ck,
ckt
de-@@
fout
ften
fysieke
her,
ij
levens
maand
ner@@
nun,
olie@@
passen
riesige
vert@@
vervolgens
w,
Angst
Jo@@
Roboter
Umwelt@@
aten,
contact
dde
erd.
fangen
hebt.
hoog@@
ker,
kijkt,
lau@@
mogen
ons,
passieren
sobald
solchen
sollte.
specifieke
sterren
technologie,
waard
zie@@
zit.
"The
"Wir
Einer
Mitgefühl
Schulen
allein
auto's
det,
deten
eil@@
fal@@
fragen,
gen."
gs
hat@@
her.
igheid
konnten.
meisjes
morele
rijk
s"
sneller
tel
würden,
2000
AB:
Bio@@
Einstein
Fähigkeiten
Gehirn@@
Maschine
Ozean
Pa@@
So,
Tr@@
Vergangenheit
Zahlen
aar,
ari@@
betrokken
ble@@
boven@@
bron
duizend
elektrische
elijk
frei@@
genannt
gevolg
hen,
ma.
manche
meesten
milieu@@
pla@@
setzen.
ären
1.@@
17
Monaten
Spezies
Uhr
aire
danke
entweder
enz
fliegen
flu@@
groene
hoffe,
klin@@
leert
lösen
natürlich,
näher
reg@@
uns.
verbin@@
viel@@
voelt
vraagt
weltweit
Problem.
Sicht
arch@@
aties.
ations@@
auss@@
bereit@@
eit
geda@@
igt
interess@@
is?
juist
kers
lernen,
lijst
maa@@
maatschappij
netwerk
niet-@@
noem
pu@@
sommigen
spe@@
ssen@@
unterschiedliche
versucht,
wichtiger
zult
Auto@@
Bevölkerung
D
Far@@
Pf@@
Tre@@
Twee
arbei@@
bevolking
centrum
d."
fu@@
funktionieren
großes
gte
gutes
junge
leider
mee.
nee,
oud.
product
projecten
sahen
sei@@
sel
sieht,
sinn@@
slag
spann@@
terug.
test@@
tige
ub@@
unglaubliche
verander@@
voelde
wahr@@
ziehen.
Beginn
Herz@@
Menschheit
Michael
Seiten
Sicherheit
ales
ard
bleef
boom
dacht:
eit@@
enzovoort.
gehad
iken
jetzt,
kent
ker.
lit@@
loop
lopen.
macht@@
nu,
pe@@
sozialen
straat
tion@@
vorstellen
z.B.
ziet.
é@@
..
@@
Beispiele
Haus@@
Herausforderung
Inter@@
Mikro@@
Mittel@@
Musik@@
Programm
Regel
Straße
Tur@@
aars
afstand
anen
as,
bent.
com@@
dete
dienst
direct
einzelnen
gekommen
ier,
ige,
interessiert
jes,
klar,
kleur
lat@@
leef@@
lesen
loopt
meteen
möglich@@
tor
"-@@
"T@@
1,@@
A,
Gesundheit
Ort,
Und,
aufgrund
bas@@
belangrijk.
bt
burger@@
cken.
dollar.
eenvoudig
egal
fen@@
fte
hören,
ief
ijk@@
int@@
ische,
leben@@
maakt.
makkelijk
mögen
punten
rode
sagten:
sprach
stoffen
systeem.
tlich
u,
volledige
waarheid
zweiten
ör@@
"Hoe
Bru@@
Entscheidungen
Gruppen
Mal,
NASA
Rau@@
S
Soms
Umwelt
Zwei@@
beschikbaar
blauwe
cher@@
ck.
dien@@
fotograf@@
fun@@
gek
goed,
hadden.
kost@@
könnten,
man.
mehrere
micro@@
nein,
nis@@
ple@@
pot@@
reken@@
sau@@
selbst.
stukje
technologieën
toch?
ve,
verband
versuche
wachten
we,
word
Öl
100.000
45
Geschichte,
Hinter@@
KB:
Linie
Mal@@
Okay.
Zentrum
ball@@
bewusst
doel@@
donkere
ent,
fo@@
geschreven
größeren
iges
iv@@
komme
kte,
nu@@
oll@@
ontdekken
or.
pijn
reden.
stij@@
vin@@
vorher
ware
wen
AIDS
Arm
Ele@@
Gesicht
Jahre,
Kern@@
Menschen@@
Monat
Name
ebenfalls
ert,
ert.
ett@@
gebeurd
gebouwd
gegeben
gezeigt
heutigen
nationale
neun
nummer
passen.
planeet.
realis@@
schat@@
schreiben
schwierig
sprak
technische
teerde
ton@@
uur@@
veränder@@
vliegtuig
voorstellen
"M@@
Amerikaner
Armut
Christ@@
Elk
Forschung
Fotos
Hy@@
Krankheit
Lan@@
Lie@@
Mag@@
Morgen
Noch
Städte
Suche
Teil@@
Weg,
ann@@
betre@@
bisher
brengen,
dig,
dritte
ermee
form@@
führte
gemeinsam
hoorde
hor@@
hundert
ierende
inn@@
jongens
laag
machines
ment,
normaal
ok@@
periode
ppen
rop@@
speel@@
spielt
stoff@@
strei@@
train@@
vandaan
veranderen,
wirklich,
ën
99
Daher
Ebene
Experiment
Himmel
Kal@@
Op@@
Pla@@
Thomas
bedenken
dat.
dit@@
ebenso
eerden
erende
gemakkelijk
ier.
kant.
laufen
lezen
lossen
negen
nennt
nutz@@
ra
technologische
teken@@
top@@
verzamel@@
volgen
äre
000
1000
Artikel
Designer
Formen
Gemein@@
Konzept
RB:
b.
bre@@
deel@@
endlich
extrem
gelernt
gers
geschrieben
handelt
heutzutage
impact
kwaliteit
lief
media
mer,
möchten
n?
ontworpen
organisatie
schon,
schrei@@
suchen
tau@@
tere
tet,
vorm@@
we.
öffentlichen
1.
17@@
Interesse
Jedes
Ze@@
bal@@
begannen
beginnen,
berg@@
besloten
controle
dom@@
draait
einfachen
erreichen.
grenzen
hab
het@@
je?
jon@@
jungen
k-@@
kam@@
kaum
ment.
onmogelijk
schlechte
soll@@
ss,
tet.
treten
us,
ute
val
verleden
verwendet
vroege
w.
wereldwijde
wert
's.
Andere
Den@@
E:
Fol@@
Golf
Hun
Iemand
Sor@@
Tijdens
ativen
ber,
bewegen,
camera
dank.
einfach.
flü@@
fre@@
gedachten
helpt
heraus
herunter@@
hoeven
hören.
kijk@@
langsam
mei@@
menten
mij,
nacht
ond
scholen
sicher@@
statt
stukken
tegenwoordig
telefoon
vorher@@
zu,
2.
Farbe
Irak
Konferenz
Kontrolle
Wil@@
Zeitpunkt
Zellen
aard
afhankelijk
arbeitet
band
berg
ed
erg@@
fall@@
gefunden
hield
irgend@@
jo@@
kie@@
ktion
leeftijd
mens@@
nam@@
ontstaan
orde
ot
patronen
sollten.
speelt
stelde
treffen.
vorige
wahr?
wezen
wichtig.
zaal
zurück,
"Je
Bur@@
Danke
Durch@@
Ergebnis
Fra@@
Go@@
Im@@
Information
Orten
Ter@@
Vandaag
Vari@@
aar.
and,
brauchen,
cken,
dt.
gezondheid
größere
helpen.
hoek
ionen
kte.
legen
leiders
len@@
lijk@@
markt@@
nen.
nor@@
ontwikkel@@
praktisch
rec@@
schneller
simul@@
spo@@
stehen.
stem
tes,
verbunden
vor.
zitten,
äh@@
195@@
50@@
Auswirkungen
Bal@@
Damit
Film@@
Gol@@
Leuten,
Medien
Publiek:
Umgebung
alle,
beg@@
bereiken
bestimmt
dag@@
damit,
entfernt
erreicht
fehl@@
gaven
handel
he,
heb,
ht
immer@@
könn@@
mus@@
pt.
ree@@
riesigen
ris@@
sein@@
sollte,
spre@@
stand.
teerd
trekken
tru@@
vorstellen,
weten.
übrigens
20.
Amerika,
Amerika.
Ben
Forsch@@
Geist
Grad
Hei@@
Japan
Je@@
Neem
Pal@@
Problem,
Sinne
begrip
behoorlijk
cel
che.
deeltjes
deut@@
digt
dit.
einfach,
frei
fäh@@
gens
gs@@
klar
levende
liegen
mobiele
nen,
pol@@
realiseerde
reden,
schauen,
staat,
steh@@
succes
tal@@
tausende
vissen
visuele
vliegen
werkelijkheid
will.
zusammen,
5,
Auge
Bäume
Gesch@@
Material
Nahrung
Nutz@@
Pu@@
Ser@@
Ster@@
amp@@
artikel
automatisch
be.
eigenes
flie@@
funktion@@
hör@@
ismus
lijnen
los.
mein@@
mil@@
nehme
stehen,
stelle
stru@@
valt
vlak
wert@@
y:
"Waarom
5.
75
Am@@
Dorf
Gan@@
Hö@@
Krankheiten
Künstler
My@@
Produ@@
Sam@@
Software
Typ
Verständnis
Washington
air
erden
explo@@
finde
gol@@
groeien
heleboel
keiner
keren
ket@@
kran@@
kwam,
linken
lossen.
mij@@
ond@@
ouder
red@@
ric@@
scherm
software
stand@@
typ@@
veranderingen
wandel@@
wind
zaak
"Als
-,
.”
14@@
Jahr.
Steve
The@@
Tod
Unser
Zwei
ade
behandel@@
betalen
bleiben
bleibt
del
desto
elijke
em.
enz.
fall
fühlen
führen,
gekomen
heelal
interessant,
iteit.
ke,
ll@@
mal,
mes
nachts
nicht?
person@@
sal@@
sch,
school.
staat.
sters
tausend
ull@@
usw.
wezens
CO2-@@
Einzel@@
Flu@@
Gleich@@
Kan
Luft@@
Mathematik
Realität
Wikipedia
Win@@
Wir@@
arbeite
atieve
bekijken
beste@@
cijfers
darauf,
dein
genden
heu@@
hoger
igkeit,
igste
integr@@
kenn@@
king
kwam.
lieten
loo@@
massa
ons@@
ontwikkeld
prachtig
scha@@
schen@@
sitzen
stem@@
studie
tion
tit@@
type
wiskunde
ändern.
1.000
Af@@
Ander@@
Aufmerksamkeit
Bühne
China,
Li@@
Produkt
Psych@@
Pun@@
Sache.
Tal@@
Tier
Zei@@
Zeug
Zugang
achtige
ade@@
alt.
alter
betekenis
betrachten,
ctie
einfach@@
einzigen
essen
gebracht,
gevonden
iel
il,
isme
len
modellen
moeite
muur
off@@
politiek
principe
schen,
stab@@
sterven
stie@@
t;
video@@
Atmosphäre
Dort
Fehler
Fran@@
Gr@@
India.
Objekt
Personen
Punkte
Spaß
Weise,
aat,
anderen,
bende
ber.
biologie
boe@@
car@@
dadurch
ek@@
energie.
entwickeln,
guter
hoort
iek
ieke
ijn@@
leeft
letztes
lö@@
natuur@@
neuer
passie
regering
spiegel@@
sser@@
stimm@@
totdat
trau@@
umzu@@
veld
verh@@
vragen.
wenige
änder@@
Architektur
Bra@@
Brit@@
Brot
Jahr,
Land,
Mill@@
Milliarde
Ons
Waarom?
alität
atmosfeer
bijvoorbeeld,
buurt
cks
delijk
deur
dynam@@
entie
fest,
form
gat
gebeurt,
gefähr@@
gegen@@
geno@@
geschehen
hinaus
hätte,
ide
innovatie
kant,
landen,
posit@@
positieve
producten
prä@@
rechn@@
revolutie
schön.
snel@@
termen
tlichen
toon@@
vooruitgang
é
.'
2,
Amerikanen
Cal@@
Dollar.
Gesetz
Hartelijk
Internet@@
Job
Museum
Publikum:
Sterne
Tag,
Tür
Wachstum
Wasser,
armoede
as.
beweg@@
bilden
brau@@
che@@
code
delen,
domin@@
dre@@
dur@@
erreichen,
für@@
gehört,
helfen.
honderd
hoor@@
inge
lag@@
lang,
leidde
neer
olog@@
onden
ongelooflijke
oplossingen
pers
probeerden
sch.
ss.
taak
tat
tiges
verdienen
verändert.
virus
vre@@
vrije
wet
wetten
wohn@@
zette
zorg
zt
3.
:@@
Eerst
Eigenlijk
Haben
Labor
Leben@@
Pflanzen
Pol@@
SW:
Selbst
Times
Zuid-@@
aat@@
ah@@
ale,
antwoorden
boo@@
boodschap
brood
creëren.
darin,
dend
essen.
früher
geldt
hen@@
ieve
ijk.
jemandem
kann@@
lev@@
lieben
meer,
mich.
natürliche
perfecte
schau@@
slagen
sterke
techn@@
vari@@
veranderd
voel@@
wichtigsten
wiederum
winkel@@
zorgt
—
5.000
Bewusstsein
Bro@@
Engels
Fisch@@
Gesundheits@@
Gi@@
Gott,
Haar
Manche
Manchmal
Möglichkeit,
Nein.
Netzwerk
Sommigen
Wahl
aarde.
akzept@@
algemeen
dan,
den."
door.
dt,
frag@@
gestellt,
gestern
heid@@
hnen
intelligente
kje
konnten,
ling
mir.
productie
rand
schel@@
sollen
toekomst.
tolle
vaardigheden
veren
vertrouwen
vroegen
weiter,
27
Bil@@
Flugzeug
Hände
Kamer@@
Klima@@
Lern@@
Politik
Revolution
Sonnen@@
Wo@@
alen,
arbeitete
boeren
bouwen,
bronnen
chter@@
compleet
creatieve
ct
daarvoor
dasselbe
deren.
druk@@
ek
eri@@
etz@@
favoriete
gezond
goed@@
heen.
hopen
hält
ing?
ion,
kommen@@
kopen.
kwestie
leiden.
maal
niks
problemen.
re
reactie
reich@@
ruimte@@
schöne
sollten,
speciale
spor@@
sturen
tie
tragen.
ut
verkeerd
voorbij
water,
wollte.
zig@@
zwa@@
Bel@@
Bild,
Firmen
Frau,
Genau
Herz
Hin@@
Jun@@
Masse
Nachricht
Nat@@
Regen@@
Sehr
Stunde
Technologie,
aat.
ansehen,
anti@@
blij@@
dem@@
draaien
energie,
fallen
fra@@
gung
hoffe
hulp@@
ion.
ir
kenne
klinkt
medi@@
mer.
middel@@
mieren
möglicherweise
nach,
one
ool@@
organismen
papier
patiënten
por@@
ret@@
risico
ruim@@
sonder@@
stad.
starten
stoel
stän@@
teilen.
traditionele
visie
weiterhin
welk
zaten
"Es
"O@@
Dass
Finanz@@
Jahre.
London
Net
Regierungen
Rock@@
Sh@@
Uiteindelijk
Verfügung
Wand
analys@@
b,
complexe
cul@@
dorthin
e"
erinnern,
fan@@
films
fähig
gearbeitet
gebruikt.
gesto@@
ham@@
heids@@
hond
hoogte
ierter
iker,
imp@@
ing:
kelijk
mehr,
over,
psych@@
ren@@
schaften
schap
st-@@
stoppen.
van,
versuchte
vertel
vit@@
voor,
website
weisen
wereldwijd
wissenschaftliche
zoon
"Nee,
Den
Fuß
Liste
Lösungen
Materie
Meilen
Obama
Oké.
Schei@@
Studie
Techn@@
Worte
ative
banen
begin@@
compassie
concept
dachten,
dicht@@
dood@@
dort,
fü@@
gee@@
gesprochen
gesteld
huis.
imm@@
k:
kostet
kro@@
leb@@
lief@@
liever
naartoe
natuurlijk,
nenne
of@@
raken
schrijven.
sein?
sicht@@
spr@@
staan,
stand,
ys
zoe@@
"K@@
Chance
Chinese
Fuß@@
Fü@@
Haufen
Innovation
Keine
Kilometer
Kun@@
Mach@@
Organisation
P
Projekte
Sal@@
Sohn
T
Veränderungen
Wasser.
X@@
ator@@
begrijpen,
benutzt
bewegt
bodem
culturele
deren,
dich@@
dichter
entwickelt,
frage
frühen
gla@@
groei@@
halt@@
heb.
hän@@
ich:
inder@@
kaarten
kleur@@
kru@@
kungen
last@@
leven@@
ließen
lok@@
läuft
medische
mindestens
mittel
nei@@
oos
pakken
schil@@
selbst,
setzen,
setzt
sst
st?
stappen
stelling
uur.
verge@@
voorkomen
vorig
vroeger
werde,
wissenschaftlichen
wär@@
ßen,
ähn@@
"E@@
"Nein,
.000
Ben@@
Che@@
Erde.
Fest@@
Geschäft
Herr
Hirn@@
Kam@@
Microsoft
Netz
Netz@@
Plat@@
Span@@
Spitze
Stra@@
Teilen
Verantwortung
Werte
Wesen
York.
a's
aktiv@@
anfangen,
apparaat
ate
aussehen
bedacht
bereiken.
cken@@
conferentie
diepe
dieren,
dorp
eerlijk
est@@
ganzes
gebruikte
gegangen
gehör@@
gene@@
hunderte
ing-@@
iteit,
ität,
ju@@
koe@@
kracht@@
lernen.
nachdenken,
popul@@
ppe
presentatie
prin@@
ron
som@@
tragen,
un
uur,
verbr@@
vermutlich
vraag:
welchem
wusste,
zee
zicht
ziel@@
Affen
Auss@@
Daten@@
Entscheidung
Nachrichten
Pan@@
Trau@@
Warum?
bepalen
bewustzijn
bleek
bli@@
bloed@@
blog@@
cker
doe@@
dung.
duurt
echten
er?
erklärt
erle@@
erstes
fei@@
fertig
fort@@
fühl@@
gde
gedaan,
gehört.
gemaakt,
gevolgen
gezien,
halte
hem@@
hin,
huizen
hörte
ica
igsten
ihnen,
ings
interpret@@
klass@@
krachtig
mende
neuro@@
ologische
on-@@
pij@@
ration@@
regen@@
roll@@
ruimte.
serie
simpel
spielen,
sta
stenen
stonden
var@@
verschillen
vier,
wissen.
00@@
4.
Augen@@
Biologie
Blut@@
Dis@@
Englisch
Gei@@
Gewalt
Nehmen
Nigeria
Not@@
Pil@@
Wirtschafts@@
aliteit
ap
au
bedankt.
biologisch
digen.
eine,
ent.
fahren.
fertig@@
gaten
gebaut.
gebouwen
gesproken
geweest,
geweld
herinner
hängt
inform@@
istischen
jar@@
kten,
kurze
kü@@
lever@@
losen
middelbare
mpf@@
nat@@
object
ologie,
ontmoette
planeten
procent.
reichen
resultaten
rijke
schen.
sign@@
slim
sodass
sozusagen
stellung
stil@@
stimmt
stroom
student
sur@@
verbinden
vertellen,
vooruit@@
vorzu@@
vreemde
was?
web
werkt,
ziehen,
ße
älter
8,
Ameisen
B
Bauern
Beh@@
Bei@@
China.
Falls
Ideen,
Krei@@
New@@
Noord-@@
Nähe
Person,
Raum@@
Tom
Unterschiede
Wohn@@
Zie
aanwezig
ali@@
anders,
anz@@
degenen
diep@@
ende,
erfolgreich
erinnere
ernaar
ero@@
fle@@
fühle
gedacht
gedachte
gei@@
geschieht
gigantische
größ@@
ia,
ierte,
industriële
kleinere
kop
lehr@@
lösen.
maan
miljarden
möchte.
naa@@
ontdekten
openbare
patiënt
schn@@
schreiben.
selbst@@
sper@@
später,
system
tegelijkertijd
tonen.
trag@@
voet
weiteres
willen.
woon@@
zulke
äl@@
‘@@
13@@
32
Ac@@
Ansatz
Aus
Dingen,
Erd@@
Howard
Jahr@@
Karten
OK?
Schönheit
Sie.
Zustand
amerikanische
blau@@
denken:
depress@@
digen,
em,
enten.
erzählte
etten
experimen@@
far@@
financiële
gaande
gab.
gas
gehe
gevoel@@
heraus.
hin.
illen
jene
keuzes
klar@@
krachten
ktes
lass@@
later,
mag@@
mde
mensen@@
nodig,
ondanks
plu@@
produzieren
realiteit
schönen
stor@@
teil
verkopen
verwenden,
ving
vraag.
vreemd
wach@@
yp@@
zetten,
zü@@
Bot@@
Darwin
Eigenschaften
Fach@@
Francisco
Höhe
Iets
Kamera
Kin@@
Kontin@@
MIT
Mess@@
Produkte
Tisch
architectuur
bekijken.
bewer@@
bin.
bon@@
daar,
daar.
dabei,
denkt,
effe@@
eien
einf@@
fällt
gd
geheel
geld.
gevraagd
haa@@
haal@@
halve
ie?
ijk
ine@@
klop@@
kraft@@
leggen.
les@@
möglich,
nadenken
nahe
noemen,
pel@@
polit@@
seconden
sicherlich
ssyste@@
teert
unterschiedlichen
veranderde
vergelijking
witte
worüber
4,
8.
9.
?@@
Arbeit.
Ball@@
Bitte
Dra@@
Ergebnisse
Geh@@
Lebewesen
Prei@@
Religion
S:
Schüler
The
Wind
Zusammenhang
ah
anfangen
ationen.
bieden
buchstäblich
cent
dieren.
dieselbe
droom
erlaubt
foto@@
frü@@
function@@
geloof@@
gisteren
hoogste
ib@@
ieren?
irgendwann
kaufen,
keer@@
keken
kend.
kraft
lanc@@
leiding
ley
materie
mis
ort@@
overleven
positie
public@@
publieke
raus@@
reeks
tafel
tief@@
unde
vallen.
ve.
verdienen.
verstanden
weiteren
werkten
wohin
zonne@@
..."
Hoffnung
Kollegen
Leidenschaft
Maschinen
Meeres@@
Nord@@
Peter
Pre@@
Sc@@
Sie?
Son@@
Vergleich
Wieder@@
beleid
benutzen,
betrachten
betreft
dan?
dus,
erklären,
flo@@
gebe@@
genie@@
gericht
gilt
icus
iek.
iet@@
install@@
kosten.
kurzen
leuke
lezen.
lied
linker@@
machen?
manipul@@
materialen
mö@@
niet@@
oh,
pal@@
produceren
schaff@@
statt@@
stern
strijd
taten
traf
veilig
verle@@
verteld
verwij@@
voet@@
vollkommen
was:
weten,
wichtigste
wunderbare
zeichn@@
"B@@
"S@@
"Wenn
2,@@
Bis
Buch@@
C,
Demokratie
Gang
Gerät
Hier@@
Islam
Jede
LG:
Loch
Mann:
Markt@@
Materialien
Schu@@
Stimme
Stre@@
Teilchen
Universums
activiteit
adem@@
art
baarheid
begann,
behoefte
bele@@
bereid
bis@@
blin@@
col@@
de?
degene
doden
druck@@
du,
elen.
enn@@
enzen
erschaffen
erster
essen,
evolu@@
fahren,
feitelijk
ffen
fängt
gehele
gemein@@
genutzt
gerei@@
hadden,
hier?
ierenden
immer.
interesse
irgendetwas
kap@@
kaufen.
kust
mid@@
os,
ph@@
schaut
schlag@@
tenminste
tes.
teste
trä@@
verder.
verändern,
vle@@
vlo@@
wacht
zeit@@
zocht
zurückzu@@
"Dat
Air@@
Col@@
Druck
E
Einkommen
Ern@@
Familien
Fernseh@@
Fähigkeit,
India,
Itali@@
Kopf@@
Kü@@
Land.
Pe@@
Raum,
Seite,
Sekunden
Stufe
Tatsache
Vielfalt
Virus
Web
Welche
Welke
Wit@@
ationen,
bekende
benutzen.
bleiben.
blik
cre@@
crisis
duurde
einiger
entdeckt
erhalten,
erkennen.
eure
ge-@@
gebe
genoemd.
geweldig.
gru@@
gten
hangt
hogere
ine,
iv
leden
letztendlich
mensheid
netwerken
nächstes
o's
onderwerp
perfect
perspectief
plezier
sammeln
slag@@
sm@@
spelen,
start
succesvol
verwar@@
voldoende
vollständig
wagen
zog
"Warum
15@@
20.000
90@@
Arbeit,
Bef@@
Britse
Com@@
Daarna
Fal@@
Farben
Größ@@
Krie@@
Objekte
Ressourcen
Steven
Video@@
ad
aden
and.
blijven.
chte.
dacht,
diejenigen
duur@@
eng@@
ernst@@
forder@@
gab,
gaben
gemeenschappen
geschiedenis.
gesprek
gewicht
heiß@@
horen.
ici
individuele
ität.
ks@@
lijk.
markt.
materi@@
messen
mmen
modernen
my@@
niets.
oom
oon
politische
profession@@
quasi
rechter@@
rede
sat@@
schoonheid
sowie
spul
sub@@
sucht
syn@@
tran@@
universiteit
verlies
verloren.
vloei@@
waarvoor
wechsel@@
wee@@
wä@@
zuzu@@
100@@
21
7.
Abend
Afrik@@
Bor@@
Cor@@
Drit@@
Hü@@
Intelligenz
Mond
Nee.
Ont@@
Proble@@
Recht
Sar@@
Star@@
TED.
Tro@@
Wa@@
anderem
bestaan.
dagegen
eentje
eindelijk
elles
ens,
entlang
entschied
erend
erstaunliche
experimenten
folgen
freund@@
fuhr
gesloten
gewe@@
graden
grundlegende
ha,
hört
ideeën.
il.
krat@@
leist@@
lose
maar,
mocht
nutzen.
optim@@
pat@@
persoonlijk
post@@
president
punt.
regel
regener@@
sage,
schrij@@
stedelijke
teveel
unmöglich
verantwoordelijkheid
vers
versprei@@
verwachten
verzamelen
welchen
wirtschaftlichen
zien?
zit,
zover
zuurstof
ß,
Amerik@@
Bas@@
Behandlung
Beziehungen
Bild@@
City
En,
Geschwindigkeit
Glauben
Herzen
Hon@@
Kinder.
Mot@@
Prozent.
Ray
Sommer
T-@@
Ti@@
Vis@@
Zer@@
ante
appen
auftau@@
avond
bal
besseren
cli@@
delijke
dungen
e."
erinnern
ette
formen
genomen.
hielt
hinein@@
hohe
hohen
hätte.
iek,
ieren@@
igung
inen
inkomen
inzicht
kei@@
ken?
kern
kleine,
kt?
ktionen
kunnen.
lernte
letter@@
licht.
manier,
medicijnen
moleculen
moment,
moo@@
nichts.
nütz@@
ofwel
onderzoeken
passierte
rijk@@
spar@@
symbol@@
t"
t?"
teilen,
temperatuur
terecht
tij@@
tijden
tischen
twe@@
up
vall@@
vergelijk@@
verkocht
verlei@@
verst@@
vollen
voortdurend
waa@@
werd.
woll@@
zwart
ë@@
1,
Aben@@
Blu@@
Dollar,
Et@@
Fern@@
Frage.
Gore
Grote
Großteil
Idee.
Jon@@
Massen@@
Onder@@
Organismen
Rede
Sein
Todes@@
Welnu,
York,
actie
agen.
anim@@
at.
atief
aut@@
bank
bedro@@
bes@@
boom@@
bü@@
cu@@
dom
dungs@@
erd,
ey
gebruikten
geme@@
gemeenschap.
gewerkt
haar@@
hafte
halten@@
he.
hil@@
hom@@
hö@@
in-@@
individu@@
inhoud
isten,
kansen
kehr@@
krachtige
krei@@
krit@@
kte@@
live
meerdere
menten,
mobil@@
natürlichen
paar@@
pagina
plo@@
politischen
prim@@
prü@@
recente
rä@@
sch
spreken.
stär@@
ten."
unbedingt
verborgen
verlassen
voeren
vogel@@
vorm.
vreem@@
werd,
zaa@@
zaken.
zaken@@
zig
zogen
zufällig
"Du
Aber,
Afghanistan
Bla@@
Bü@@
Dat@@
Gener@@
Got@@
Han@@
Harvard
Heb
Hund
Ihnen.
Klimawandel
Neuro@@
Oh
Papier
Part@@
Position
Proje@@
Prä@@
Präsident
Sauerstoff
Sind
Soldaten
Strom
Systeme
Tra@@
Westen
aanpak
actief
atoren
beslissingen
context
deinen
dient
dlich
dy@@
eenmaal
entwickelt.
ete,
fläche
gel,
gewisse
gut@@
hoffentlich
iertes
igen@@
ille
ity
lesen.
line@@
mate
merk@@
milieu
missie
nach.
nachzudenken,
onderdelen
onen.
ood
ori@@
pakt
pt,
redelijk
ry
sei,
seien
serieus
setz@@
slaa@@
snelle
start@@
stische
tex@@
viel.
vij@@
voorspel@@
wahr
wens
wetenschap.
woe@@
woorden,
zegt,
ën@@
-jarige
7,
Antworten
Chr@@
Cra@@
Entschei@@
Filme
Fin@@
Fische
Flug@@
Foto@@
Gegensatz
Geld,
Heil@@
Jahres
Martin
Methode
Miss@@
Müll@@
Over
Tag.
Zeiten
afrikanischen
angst
behandeling
betra@@
bij.
ca@@
chem@@
den-@@
do
dreht
echt.
ellen.
entwickeln.
es?
falsche
fisch@@
geboren.
gegeven.
gewissen
grond@@
groß@@
halb
hlen
ian@@
igkeit.
ihr,
ij.
ijk,
intelligentie
k?
kan.
klimaat@@
lebt
lege
legen.
li
ließ
maakt,
morgens
mus
objecten
omp@@
ontwikkelde
oot
podium
satz
schijn@@
scht
ses
solch
spra@@
steht,
stellten
sterben.
treffen,
trots
tun@@
uitdagingen
veranderd.
verantwoordelijk
verbeter@@
verg@@
verwacht
vogels
volgen.
weder
wil.
wil@@
wild
won@@
wussten
wäre.
zeigte
zo,
zogenaamde
á@@
$@@
11.
250
6,
Berg@@
Fortschritt
Freude
Ga@@
Innen@@
Komplexität
Lag@@
Mittel
Mö@@
National@@
Ordnung
San@@
School
Sex
Sub@@
Wohl@@
aard@@
anc@@
apen
auch.
aus?
außerdem
befinden
begr@@
bene
bestuderen
bew@@
bun@@
cent@@
collega's
des.
dia
digit@@
doordat
dort.
drin@@
dui@@
duur
ehrlich
erhalten.
ets
exist@@
extreem
fest
fühlt
führt.
gam@@
gehad.
geschaffen
gezet
graa@@
hauptsächlich
hem.
herstellen.
ia.
indruk
inge@@
internet@@
konzentr@@
kürzlich
leerd
lessen
lieber
los,
luisteren
mitten
motor
ni@@
oceanen
olit@@
oorspronkelijke
organisaties
ouder@@
pad
religieuze
repar@@
richtig?
robot
rug
schlu@@
spel.
spiel
spraken
sprech@@
stes
stör@@
tag@@
techniek
ting
tut,
unbe@@
ung?
veer@@
verkeerde
vlie@@
wit
zeu@@
ë
überrasch@@
ück@@
"Der
"Oh
21.
Dan@@
Die@@
Engl@@
Erde,
Familien@@
Gut,
Jij
Junge
Landes
Ongeveer
Pap@@
S.
Seite.
Typen
US-@@
Werkzeuge
absolute
air@@
belangrijk@@
bergen
besefte
besteden
besu@@
bild
braucht,
comp@@
deck@@
deutlich
diejenigen,
diger
dood.
drehen
drit@@
endes
ens.
ervaren
functie
füll@@
gestellt.
goe@@
herstellen
het?
hilft
holen
hoor
ih@@
ijn
inner@@
isol@@
lijk,
lopen,
mijn@@
modell@@
name
normalen
ongelofelijk
ontwerp@@
oppervlakte
overtuigen
praten,
profit@@
rin@@
s'
samenwerking
schaft,
scheinen
school,
schwarze
slimme
soci@@
sociaal
spreche
stecken
stelden
stimul@@
totale
trekt
twee,
vernietig@@
verursach@@
vlees
waarden
wacht@@
wenigen
wichtigen
wit@@
zeg@@
zicht@@
zware
ßen.
ändern,
"Nun,
10,
6.
Fel@@
Folge
Frauen,
Gründe
Jahrhunderts
La
Larry
Medizin
Niveau
O
Sand@@
Schlag@@
Schwe@@
Sei@@
Tegen
Telefon@@
Twitter
Verbindungen
Wunsch
Zou
act@@
an?
anz
arm@@
bahn
bekannten
beru@@
bran@@
brei@@
brein.
centrale
dessen,
dik@@
duik@@
dun@@
dy
eigenschappen
einmal,
empf@@
en!
ersch@@
erzeugt
extra@@
fach@@
faszin@@
fingen
fys@@
fühlen,
fühlte
gebied.
gefunden.
getroffen
ha
hemel
hopelijk
huis,
ikan@@
instru@@
invester@@
kaar@@
kleuren
konstru@@
kracht,
laden
leer
letz@@
lim@@
meten
momenten
musst
omstandigheden
park
plaatsen.
ppen,
real@@
redden
regul@@
reich
romantische
sah,
schaf@@
selber
simpelweg
spei@@
steken
suchen,
sü@@
technisch
tijdperk
tot@@
total
trotz
unt
v
vat
verein@@
vergeten
verliezen
vliegen.
volgt
vrijheid
waar.
web@@
wobei
wur@@
zieh@@
zt.
2005
2007
A-@@
Alleen
Außerdem
Blog@@
Bon@@
Ca@@
Drei@@
Dun@@
Erfahrungen
Europa.
Freund@@
Gefühl,
Gefühle
Kontakt
Kris@@
Landwirtschaft
Lang@@
Mi@@
Moleküle
Mr.
Oost-@@
Planeten,
Regel@@
Region
Risiko
Tu@@
Wege
Wörter
Zie@@
a:
alen.
allemaal.
anschauen,
antwor@@
baar,
besondere
betrachten.
combinatie
des,
deswegen
dieren@@
dunkle
duurzame
eeuw.
erwähn@@
experiment@@
feu@@
funktioniert,
gel.
glei@@
god@@
haalde
habe@@
herum.
iets.
imit@@
individuen
inten@@
jarige
klasse
leren,
lic@@
md
mehr@@
men?
moeder@@
museum
mächt@@
niedr@@
nissen
organ@@
private
rekening
relativ
schw@@
serv@@
somit
spec@@
steckt
stoff
sä@@
thuis@@
ver.
versp@@
voer@@
voornamelijk
vorstell@@
wakker
zehn@@
zin.
zorg@@
zw@@
"Sie
.,
0,@@
65
800
App@@
Botschaft
Chicago
Dre@@
Earth
Fe@@
Ham@@
Hans
Hän@@
Kle@@
Kli@@
Kreativität
Maar,
Nichts
Nieder@@
Physik
Por@@
Projekt,
Quelle
Rom@@
Sachen,
Schau@@
Schw@@
Seh@@
Straßen
Stu@@
World
Za@@
Zwe@@
allerdings
anische
ater
bat@@
beobachten
beschaving
beschik@@
bestaande
by
camer@@
cit@@
cool@@
creativiteit
dagelijks
deelt
defin@@
democratie
einfacher
emp@@
entie@@
entwickelten
ering
ers@@
etc.
exact
fundamenteel
gaan@@
gemiddeld
geru@@
gezondheidszorg
heits@@
hetzelfde.
hinein
iden
it,
jong
keu@@
kking
kla@@
krie@@
ktion@@
leveren
lässt.
maan@@
merk
natuur.
nie@@
nog,
ontvan@@
oot@@
ors
r.
repräsent@@
ruimte,
runter
saß
schwer@@
starke
steigen
tem@@
tigen
vandaag,
veiligheid
verdien@@
veroorzaakt
verster@@
verw@@
voelen.
zelf,
zomer
zunächst
zur@@
zusammenge@@
Über
ër@@
"Dit
"Weet
C.
Char@@
Durch
El
G
Gelegenheit
God@@
Ir@@
Jobs
Lage,
Leist@@
Man:
Obwohl
Punkt,
Spr@@
Stephen
Tab@@
Ton@@
Tran@@
Verbreitung
Verhaltens@@
Wahrscheinlichkeit
Wald
West@@
Whit@@
allen,
angefangen
antie
barkeit
befindet
beperkt
betaal@@
beur@@
beïnvloe@@
boek@@
brauche
bur@@
cel@@
consu@@
dischen
doos
drück@@
ellen@@
erfunden
erklären
fasst
freien
ged@@
gesagt:
geworden,
groeide
heit@@
herinneren
heute,
hierover
ie:
ijke
ina
informatie@@
interview@@
ktiv@@
ktoren
könnt
lebens@@
liggen
lä@@
lü@@
mechan@@
mol@@
mond
näch@@
onderwij@@
ontwerpers
oor
pet@@
rein
rij
set
spreekt
to,
trekken.
ts.
uer@@
uitda@@
veel.
verd@@
verlieren
verstand
vooruit
vragen,
vriend@@
vrouw,
warten
wieder.
wiederhol@@
wirkliche
wiskundige
zeiten
zijde
zijn@@
zin,
zoekt
zug
zusammenzu@@
194@@
80@@
AR@@
Charakter
Freunden
Führ@@
Geb@@
Hom@@
Japan@@
Kap@@
Kunnen
Linien
Mass@@
Mei@@
Mer@@
Nachdem
Noor@@
Reaktion
S-@@
Sat@@
Schrit@@
Seine
Sex@@
Sil@@
Spielen
Tan@@
Versuch
Wahl@@
X
aas
alleine
anten
barer
bekann@@
benutz@@
bewegingen
ble
bord
brauchen.
brauchte
brug
chirurg@@
chs
chter
complexiteit
dank@@
davor
dere
diensten
dung,
eens.
elementen
entschieden
finanz@@
führt,
genannt.
genau@@
geschah
geval,
glich@@
goo@@
halbe
heden,
heil@@
hon@@
interessan@@
klo@@
koppel@@
landbouw
leucht@@
mess@@
methode
mod@@
nah
onden.
raakte
religie
roten
schlag
seconde
soll.
stof
tic@@
tlich@@
toe,
toon
vak@@
verkauft
verkl@@
verursacht
vrijwel
wenden
werfen
winkel
wissel@@
x,
ziek
zoeken.
zul
ähnliche
26
Apple
Baum
Begriff
Berg
Bit@@
Brian
Cha@@
Doe
Energie,
Erwachsen@@
Fluss
Forschungs@@
Frage:
Frank
Galaxien
Gesellschaften
Gor@@
Hintergrund
Instru@@
Invest@@
Kampf
Kann
Klein@@
Kunden
Mau@@
Mission
Mont@@
Mut@@
Obje@@
Oo@@
Samen
System,
Vi@@
Wider@@
Zo@@
Zuerst
been@@
behulp
bereken@@
bestude@@
bt.
contro@@
details
discuss@@
drij@@
eng
erzeugen
fantastisch.
finde,
geln
gezegd,
grafiek
grij@@
groß.
haben?
haften
hard@@
hren
idee,
io
ire
istisch
kleinste
krij@@
lee@@
leger
lichaam.
mal.
meistens
mir:
mittel@@
naja,
oben.
offen
ologisch
opt@@
oudere
pie@@
project.
raus
reageren
redden.
roe@@
schap,
schlagen
schnell.
schwe@@
schätz@@
schön@@
sie:
slaan
soldaten
stammen
steen
tekenen
tig.
unglaublich.
verhaal,
verkaufen
verliefd
verspreid
vertel@@
verwacht@@
vijf@@
voordeel
voort
wachsen.
welt
wir.
wirst
wohl@@
wollten,
ziekten
zomaar
'9@@
3.000
A.
Bedingungen
Bran@@
Büro@@
Demo@@
Eigentlich
Eing@@
Eu@@
Europa,
Finger
Fo@@
Ganze
Jahre@@
Jemand
Jer@@
John@@
Kir@@
Männern
Nachbar@@
Perspektive
Pin@@
Planeten.
Pr@@
Rahmen
Ri@@
Rob@@
Sicherheits@@
Solar@@
Spe@@
Studien
Syste@@
Süd@@
Test
Tieren
Toch
Tri@@
Tru@@
Typ@@
bares
beeld.
beroemde
bouw
cr@@
dauer@@
dauert
dit,
doorheen
dromen
effec@@
elektriciteit
enthousiast
entscheiden,
erbij
ermöglicht
extreme
führung
gebeurde.
geschichte
gewor@@
goedkope
greif@@
groeien.
gst
haf@@
hersenen.
höher
ick
ideeën,
interactie
ipp@@
iven
kam.
kapit@@
ken:
klan@@
klim@@
kol@@
kosten@@
kriegen
kruis@@
lager
lass
legen,
ler,
lichten
m:
male
mentale
merken
moeilijk@@
ologe
ontdekking
past
plek.
prior@@
rate
robot@@
sollen.
soviel
stattdessen
stemmen
strahl@@
stukjes
systeem,
tegenstelling
ther@@
tijdje
toevallig
trifft
trouw@@
vergeleken
vergessen
verhalten
voed@@
vormt
wand
weiger@@
weiss
wirtschaf@@
zijn:
zor@@
zowat
zähl@@
überprü@@
"Nou,
3,
30.000
700
D-@@
Daardoor
Entwicklungs@@
Ess@@
Fall,
Fer@@
Fernsehen
Feuer
Ga
Gal@@
Gehirn.
Geld@@
Infrastruktur
Jungen
Ken@@
Kre@@
Lied
Long
Medien@@
Mus@@
Ober@@
Organis@@
Professor
R
Sekunde
Sha@@
Waarschijnlijk
Zunächst
abhängig
achten
afge@@
algemene
bak@@
basiert
bat
bau
bena@@
betrachtet
biolog@@
blind
brief
chs@@
ck-@@
daardoor
dire@@
discussie
doen."
ervan.
formul@@
furcht@@
geld,
gelu@@
gelöst
gerecht@@
gewöhn@@
grond.
grund
habt
halen,
ica,
icht,
ihnen.
ij,
innov@@
jullie.
jur@@
kundige
leisten
licht,
maß@@
mee,
meter.
mier
minder@@
minim@@
moeilijke
motiv@@
neiging
nein.
omgeving.
ool
plus
pul@@
realen
samenleving
satz@@
scher
sel.
slo@@
split@@
springen
stadt
steht.
sterrenstelsels
tet@@
verbinden.
verbinding
verr@@
verschijn@@
vet@@
vla@@
vormen.
waarde@@
war:
wetenschappelijk
wetenschapper
ze:
zeg:
zentr@@
zwem@@
ßt
üb@@
"Ver@@
2008
50.000
5000
Beine
Drittel
Eigen@@
Galaxie
Gehirns
Individuen
Krä@@
Lab@@
Laptop
Lebens.
Mis@@
Modelle
Moor@@
Nahrungs@@
Naja,
Ok.
Pakistan
Partner
Sozial@@
Spiegel@@
Themen
Van@@
Waar@@
Wan@@
Zeu@@
Zonder
activ@@
age@@
agen,
agen@@
aktiv
alle.
anschau@@
aties,
atom@@
bedien@@
beeindruck@@
behandelt
beinahe
bewijzen
bijzondere
breken
bt,
cke,
clu@@
complex
cra@@
deed.
definit@@
dergelijke
dritten
een,
einander.
ello@@
entdecken
entwickelte
epidemie
errei@@
erwar@@
erzähle
exp@@
fragt
gang.
gebaut,
gedacht,
gedacht.
gedeelte
gelei@@
genauer
grundsätzlich
halt
herausfinden,
hoch.
hoofd.
häufig
ikt
inderdaad
interessanter
isme.
isten.
jemand,
jün@@
kanker@@
kauf@@
keiten
kelijk@@
ktion,
laat@@
landschap
langzaam
laut
lediglich
leuk.
lichaams@@
lichte
lös@@
m?
mark@@
mögliche
nde
normal@@
ochtend
ontwikkelen.
overleven.
passt
plastic
produziert
proef@@
proje@@
reizen
richten,
ries@@
schafft
schaute
setzte
sser
stad,
t!
tientallen
titel
toonde
trin@@
tritt
tö@@
up@@
vierde
volwassen
vóór
wahre
weefsel
wieso
wijs
wuchs
zahlen
ziekenhuis
zon.
ähnlichen
ó@@
öffentliche
üt@@
120
2.000
23
Arbeiten
Beispiel.
Bildern
Dabei
Darwin@@
Daten,
Daten.
Details
Drie
Fenster
Gesetze
Gutes
Hollywood
Indien,
JA:
Kevin
Krankenhaus
Kriegs@@
Kun
L
Ozean@@
Qualität
Schaf@@
Schmerz
Stadt,
Stat@@
Weile
Zauber@@
Zit@@
Zodra
al-@@
allen.
anschauen
appen.
bar,
ben?
bereikt
bestehen
beteken@@
bom@@
brenn@@
buitengewoon
contra@@
debat
dimensies
diskut@@
durch.
effectief
eiland
en".
enties
erlauben
ervaringen
essentie
fand,
ffen,
gebrau@@
gebrek
geführt
gehol@@
geko@@
graph@@
grote,
halb@@
hiermee
hinzu@@
hoef
hoof@@
hü@@
icht.
id,
ieën
ils
ise
keit,
ken."
kjes
klimaatverandering
kä@@
lijn@@
mann@@
markt,
markten
meet@@
mensch@@
menten.
moment.
moti@@
motor@@
ms,
möchten,
nennen,
net.
ologie.
oplossen
plaats.
presen@@
produc@@
punt,
radi@@
reicht
rondom
sag@@
schlechten
schnit@@
se-@@
selbe
sexu@@
sho@@
sig@@
snel.
specifiek
standaard
startte
stig
stroom@@
talk
telkens
thema
traditionellen
unge@@
untersu@@
vandaag.
verspreiden
versu@@
voorbeeld.
vorne
wesentlich
wirtschaftliche
wol@@
wähl@@
y's
yl@@
Ä@@
äußerst
2.@@
Aktivität
Beim
Chil@@
D.
Del@@
Engel@@
Grün@@
Haut
Industrie
Krit@@
Kräfte
Lau@@
Malaria
Medi@@
Medikamente
Minuten,
Ost@@
Phil@@
Sauerstoff@@
Sher@@
Sir
Sol@@
Sprach@@
TED,
Tor@@
Valley
YouTube
aardig
am,
anischen
auto.
bedoel@@
beel@@
begrepen
berichten
bestand
beweegt
bilden.
bloß
boek.
cm
dische
dop@@
durchschnittliche
duw@@
eel.
ei
elijk@@
ell,
enden,
entwickel@@
est
fouten
frustr@@
gal@@
gebeurd.
geheim
gehouden
getötet
glas
golf@@
haft
hau@@
heben
hierin
ignor@@
ingenieurs
invest@@
kerel
kont@@
kostte
lam@@
levend
man:
menschliches
meren
mi@@
n:
nachzu@@
nden
niet."
nochmal
ogen.
op-@@
opwarming
ord@@
os.
pagina's
plaatje
programma's
publiek.
raad
rein@@
robots
roman@@
rück@@
sehe,
slaan.
sprong
stellingen
sthe@@
ta
tegelijk
teile
telefoon@@
tell@@
tenen
tern,
tri@@
trägt
tut.
täglich
ue
veel@@
verantwoordelijk@@
verantwortlich
verbazingwekkende
verlangen
verminder@@
vertelden
vervuil@@
visser@@
weise,
weise.
well@@
zellen
zieht
ziekte@@
zodra
.com
99@@
Ah@@
B.
Blau@@
Bob
Deswegen
Don@@
Elektro@@
Engelse
Etwas
Feld
Freiheit
Galax@@
Gest@@
Gewicht
HIV-@@
Handel@@
Herausforderungen
Ihres
Kr@@
Medikam@@
Meer@@
Netzwerk@@
Näch@@
Park@@
Plan
Schiff@@
Sorgen
Stattdessen
Stein@@
Technologie.
Terror@@
Traum
Vier
Zelle
aarde,
abhän@@
arbeit@@
aussieht.
automat@@
bank@@
beizu@@
belangrijker
belast@@
benadering
beslissen
beter.
bevat
bezahl@@
bezo@@
bill@@
blik@@
bol@@
boot
bos
brandstof
burgers
combin@@
computer.
constant
definitie
dene
digd
dige,
diplom@@
eeuw,
eind@@
eln,
erinnert
erwarten
erzeu@@
existiert
fragen:
gebeurtenissen
gedragen
genug,
geprobeerd
gescho@@
gevo@@
grei@@
heet.
heran@@
hiervoor
hij,
ieten
igkeiten
ischem
ismus,
jaren.
klingt
kul@@
kung
leraren
lässt,
machine.
muziek.
muziek@@
männ@@
nauwelijks
nee.
nis
noch,
noch@@
nul
omgaan
opname
oten,
personen
persönlichen
proberen.
programm@@
ps
schreiben,
sels
st."
steun
stopte
taf@@
tion,
vaar@@
verbeteren.
vergröß@@
verschillend
versus
vorstellen.
wein@@
weißen
werde.
wichtig@@
wieder,
winn@@
winnen
wiss@@
yc@@
ät
't
19
28
30@@
Adam
Afrikanen
Chem@@
Einsatz
Fun@@
Fällen
Geld.
Glob@@
Grundlage
Gründe,
Gute
Hol@@
Holz@@
Hum@@
Händen
Interess@@
Kapit@@
Kind@@
Lam@@
Laufe
Lös@@
N
Oxford
Pet@@
Problemen
Robo@@
Sin@@
Sogar
Staaten,
Uit@@
Velen
Verstand
Vogel@@
Voll@@
WK:
Wunder@@
Zel@@
aanpa@@
abel@@
abgesch@@
abstra@@
acc@@
actieve
adem
auff@@
bedoeling
begrijp
belieb@@
benötigt
beschäftigt
besor@@
bestuur@@
bezig@@
brauch@@
brechen
ches
daarover
deed,
dens
drukken
drücken
echt,
eling
elkaar,
erkenn@@
erschaffen.
foto.
front@@
gehei@@
gemeenschap,
gevormd
gre@@
hielden
hinweg
hm@@
hoch,
hätten,
ide.
iger,
ik-@@
infrastructuur
intelligent
issen.
kantoor
kind.
kunst.
kurzem
kwaad
lab
levert
lig@@
lijden
mmer@@
moeder,
mondiale
mung
ober@@
ogen,
omen
onen,
ontde@@
ontstaat
oorlog.
oten.
perfekte
plaatsen,
planeet,
proces.
productie@@
relaties
s?"
schaft.
seit@@
sowas
stei@@
strategie
tast@@
teren,
tig,
tocht
ts,
typische
ung:
ver,
verfol@@
verklaring
verschrikkelijke
vertrau@@
vervangen
warm@@
zag,
zam@@
zone
zwaar
zwaar@@
!@@
50,
55
Aarde.
Arzt
Big
Ehr@@
Einfach@@
Erfindung
Erklär@@
Experimente
Fortschrit@@
Früh@@
Gall@@
Ganz
Gelukkig
Gesamt@@
Gla@@
Goed,
Hill@@
Ira@@
Kerl
Kla@@
Kontext
Kra@@
Lasst
Leute.
Lö@@
Mars.
Mehr
Moment,
Mount
Möglichkeiten,
Nan@@
Nu@@
Nutzen
Para@@
Park
Planet
Prin@@
Rand
Rat@@
Schlaf@@
Schluss
Schöpf@@
September
Spiele
Tausende
Versch@@
Voor@@
Will@@
Ziel@@
afbeelding
aliseerde
als,
amen
arbeiteten
bein@@
beschleun@@
beseffen
beslissing
brauchten
bringt.
chan@@
cool
dest@@
droog@@
ech@@
echt@@
eerste,
ef
eil
enig
entstehen
erachter
erin.
eröff@@
ett
fde
fünf@@
gehalten
gehoord.
geleid
gem@@
genoom
gestor@@
gevoelens
gewinn@@
groen
gän@@
heel,
heen,
hop@@
ht,
höhere
ingt
inst@@
internationalen
internet.
ka
kamer@@
keit.
kel,
kocht
koo@@
krant
kwal@@
laptop
lautet:
lid
liegt,
loos
lösen,
mening
mente
moeders
moralische
möglich.
neutr@@
nichts,
noem@@
omvang
onmiddellijk
opkomst
ord
pakken.
relig@@
rus
röntgen@@
sbe@@
schap.
schle@@
sequ@@
sion
spezielle
stof,
tieve
tiv@@
transport@@
treff@@
unabhängig
unden
verlaten
veronder@@
verzeker@@
virussen
visualis@@
voorkomen.
vrouwen.
warm
wie,
wieviel
wijn@@
wonen
zwei,
Ärzte
überzeugt,
2001
2006
33
Afrikas
Aktiv@@
Antwor@@
Australi@@
Aut@@
Bank
Basis
Bevölkerungs@@
Bild.
Binnen
Bus@@
Bush
Büro
Can@@
Doku@@
Effekt
Erzähl@@
Extre@@
Fleisch
Flü@@
Frau:
Gat@@
Handel
Hil@@
Hinsicht
Insel
Jungs
Ke@@
Kein
Kenia
Kombination
Mac@@
Maß@@
Mid@@
Mir
Nation@@
Oper@@
Organisationen
Pen@@
Pri@@
Probleme,
Prof@@
Präsentation
Reg@@
Schutz@@
Silicon
Stadt@@
Tex@@
Titel
UN@@
VS.
Ve@@
Vision
Vrouw:
Web@@
Werbung
Wur@@
a"
afval
afval@@
alit@@
appen,
arbeit
baut
bedeutet.
beschermen
besliss@@
betro@@
boek,
bouwde
bovenop
cellen.
ckt.
creë@@
deels
denkt.
dennoch
di
dio@@
dit?
diverse
dün@@
entie,
erforder@@
es:
eth@@
forsch@@
früh
funktionieren.
gebruikt,
gefangen
gegenseitig
gekomen.
gelernt,
gereedschap
ges,
getallen
gevaarlijk
gevonden.
gingen,
gross@@
großartigen
hij:
hit@@
ht.
ide,
ierung.
igt.
jag@@
kamen,
keer.
kind@@
koff@@
kolon@@
kombin@@
krank
kse
ktive
leerden
lezing
liche,
liefde,
liegt.
malen
minst
mogelijk@@
nachdenken
nieuws.
offen@@
olo@@
opleiding
oplossen.
oversch@@
poging
potentieel
recent
relatief
result@@
rief
rijden
schafts@@
sche,
schließ@@
schlä@@
schon@@
sluit
st:
sterven.
stige
tern.
toler@@
unieke
vallen,
veel,
verdient
verwen@@
vliegtuigen
voedsel.
volg@@
wasser@@
wees
wegen,
winst
wovon
yn@@
zerstör@@
ziektes
überqu@@
♪
"Ma@@
,5
0,
Bau
Bedankt.
Bezieh@@
Boo@@
Cont@@
Daar@@
Dru@@
Eindruck
Erst
Fre@@
Geräte
Gesetz@@
Glück@@
God,
Homo
Institutionen
Iran
Japanse
Kil@@
MI@@
Mik@@
Nachbarn
Osten
Ozeane
Phänomen
Regier@@
Sag@@
Sinn,
Stand@@
Staten.
Temperatur
Tonnen
Tür@@
University
Unterstützung
Verhältnis
Videos
Wandel
Website
Wind@@
Zell@@
Zitat
Zusammenarbeit
actie@@
alt,
amb@@
aufgenommen
beschouw@@
besl@@
bevinden
biologischen
boven.
ckl@@
continent
cur@@
dieselben
diging
digitalen
dollar,
drei,
eben@@
eert.
effecten
elektron@@
erie
erlaubt,
ernst
erweise
eter
families
ffen.
film.
gegenüber@@
gelegt
gels
genoeg.
genoemd
genommen.
ges.
gestorben
gevaar
gevangen@@
gewisser
gewonnen
grappig
heden.
hiel@@
hierher
historische
igt,
individu
instellingen
iste
ix@@
kamp
kers,
kontroll@@
koolstof@@
kwamen.
kämpf@@
lastig
lichem
lichkeiten
lichsten
lijken.
lossen,
luist@@
mittels
mäß@@
nen@@
not@@
nö@@
opmer@@
oudste
passen,
pon@@
positive
prijzen
raakt
rat
rechts@@
richten.
roep@@
schal@@
schein@@
schl@@
seite
sleutel
solcher
soll,
speciaal
spen@@
speziellen
spiegel
stopt
stür@@
taal@@
tag
tar@@
teer@@
telijke
termijn
tien@@
unglaublichen
uten
utz@@
verbazingwekkend
verwan@@
voeren.
wachsen,
weer.
wetenschap,
ya
zijn."
zing
zt,
är
äuß@@
öl@@
---
1960@@
29
350
Alles,
Amerikan@@
Anders
Art.
Arthur
Ausmaß
Bewei@@
Chin@@
Cou@@
Damals
Elemente
Erklärung
Fragen,
Gemeinde
Großbritannien
Grupp@@
Heimat@@
Jung@@
Klei@@
Kn@@
Lad@@
Lieblings@@
Materi@@
Men
Nationen
Nicht@@
Over@@
Phase
Privat@@
Prozess@@
Ran@@
Roll@@
Schön@@
Seit
Syn@@
Süß@@
Telefon
Vorfahren
War
achtergrond
ala@@
arten
ast
bed
bedrijf,
bepaalt
besit@@
bewusst,
bibliothe@@
bloed
briljante
ces
deze,
deze.
dieper
dies,
eert,
emotionele
entstanden
erhält
ervar@@
evolutionaire
fabriek
fern@@
flüss@@
fragten
förder@@
gebeur@@
gebied,
gebo@@
gefunden,
gegeben,
gegeben.
gelijk.
geraakt
geste@@
gestop@@
gezeigt,
gin@@
glich
golf
gor@@
hand.
hartelijk
hat?
hedendaagse
hergestellt
huid
hält,
iden@@
ierten,
igten
iken,
improvis@@
inclusief
isme,
iten
ië,
jaar@@
komplexe
komst
kritische
kunstenaars
lab@@
last
laufen.
lebte
lern@@
liegen.
locatie
lucht.
machte,
manchen
men:
mend
metafoor
momenteel
nergens
noe@@
ogra@@
ond.
persoon.
persönliche
plant
ppen.
reag@@
recht.
sam
samen.
schicken
schon.
seks
sich@@
spir@@
stad@@
standpunt
stands@@
stück
stück@@
te."
teilt
terecht@@
treten.
ule
ult@@
verbrachte
verwenden.
vrouw.
waaraan
weet,
willekeurige
wirklichen
wären,
zes,
zwan@@
öpf@@
2003
40@@
50.
Amazon@@
Ap@@
Architekten
Benjamin
Bildschir@@
Epidemie
Geburt
Glamour
Haw@@
Hey,
Hit@@
JH:
Ja
Kindern,
Kontinent
Küste
Liber@@
Londen
Musik,
NG@@
Net@@
Pfer@@
Produktion
Relig@@
Schne@@
Sobald
Sozi@@
Stand
Strukturen
Städten
Tanz@@
Tau@@
Tele@@
Tem@@
Test@@
Trick@@
V.S.
Worten
Wür@@
Zeer
Zukunft.
aans
aber,
age,
algorit@@
alsjeblieft
ar,
ativ
band@@
bedan@@
begrenz@@
begrij@@
bellen
besser.
beweging.
bezüglich
blü@@
creëert
dafür.
dankzij
data.
deiner
demo@@
demonstr@@
dichtbij
dochter
doelen
druck
dure
eig@@
eingesch@@
elegan@@
enten,
enti@@
enz,
falsch.
fe,
fiel
findet,
frequ@@
fuer
fälle
gebro@@
gend@@
genom@@
gereed@@
gespielt
getal
getan.
gingen.
golven
graf@@
h-@@
haalt
haus
helden
herauszu@@
herzustellen.
human@@
höre
ice
ile
ingewikkelde
instrumenten
ives
jener
jullie,
kilo
klassieke
lasst
lauf@@
laufen,
lebenden
lesen,
linke
meiste
militaire
minister
mochten
mogelijk.
neh@@
nis,
nu.
ong
ongelofelijke
ontwerpen.
opgenomen
oppervla@@
ore@@
orie
persönlich
plaat@@
prakti@@
principes
regen
schlechter
schwarzen
sehr.
seitdem
setzten
spannend
sproble@@
steck@@
stoffe
stop
talen
teerd.
terror@@
tert
testen.
uiteraard
un,
ungs-@@
universum.
verbindingen
verkopen.
verspreiding
viel,
voorbij@@
werel@@
werke
west@@
zak
ändert
"Er
20,
22
5%
?“
Afrikan@@
Ahnung
Anteil
Arch@@
B,
Brenn@@
Bruder
Craig
Dro@@
E-@@
Entdeckung
Erfin@@
Ernähr@@
Fisch
Folie
Fu@@
Geheim@@
Generationen
Gesich@@
Grenze
Handy
Institute
Kind,
Laden
Landschaft
Lit@@
Maßstab
Mem@@
Molekü@@
N.
Nou
Rot@@
Russ@@
Sau@@
Schat@@
Schimpansen
Schwer@@
Sich@@
Sonnenlicht
Spa@@
Telef@@
Tiere,
US@@
Uganda
Verstehen
Zivilisation
baby
beteil@@
bewahr@@
blok@@
cap@@
capaciteit
cellen,
den;
dien
digung
drie,
dringen
druk.
economie.
economisch
een.
emot@@
ender@@
entschei@@
erger
erschaffen,
erung
ervaring.
fic@@
freie
gang@@
ge:
gecreëerd
gefil@@
geheime
gemeinsamen
genetisch
genoeg,
gesetzt
gesund
gie@@
grens
heilige
hieraan
holen.
häl@@
ia@@
iets,
ika
ionen,
ismus.
jähr@@
kool@@
krijgt.
körper@@
l.
lez@@
lichen,
lichkeit,
lichkeit.
lied,
me:
mens.
menschlicher
merkt
metho@@
ming
model.
mooi.
nennt.
nicht-@@
nisse
nutzt
oceaan.
oceaan@@
oer@@
onden,
oorzaak
opmerkelijke
oren@@
oud,
overtuigd
p-@@
pak
pap@@
pe
prei@@
raum
realiseren
reser@@
retten.
s...
scann@@
schep@@
schließen
seltsame
sieht.
son,
speci@@
spellen
spit@@
spoor@@
sporen
sprin@@
standen
still@@
stolz
sturen.
suchen.
tab@@
te-@@
tegenover
telefoons
tenzij
tue
veil@@
verder@@
verfügbar
verhouding
veröffentlicht
vliegtuig@@
vorbei@@
vorming
vragen:
vrouw@@
w-@@
wahr.
wahrschein@@
weiterer
werelds
westen
willen,
wofür
wou
x.
zeichnet
ë.
"Ja@@
0.
1,5
24@@
60@@
Achse
Baby
Bibel
Blut
Brun@@
Buch,
Colle@@
Design-@@
Dr@@
Ecke
Enkele
Fast
Forscher
Golf@@
Helden
Herr@@
Ideen.
Indien.
Innov@@
Jeff
Jill
Kaffe@@
Kenn@@
Klass@@
Kom
Komp@@
Leistung
Log@@
Molekül
Nas@@
Ob
Pass@@
Posit@@
Rover
Schule.
Schwan@@
Schwar@@
Stan@@
Train@@
Wahr@@
Wahrnehmung
Weg.
Wein@@
Wesentlichen
Zeitung
aak
age.
anbie@@
artige
aufs
beeinflusst
been
bekamen
belangrijk,
benader@@
berechn@@
bescherming
bewegt,
bte
cha@@
cher,
cool.
coördin@@
cties
daarop
den?"
dollar@@
draaien.
ellen,
els.
ente,
entscheiden
etzen
fokuss@@
fäll@@
gebeuren,
gebie@@
gedul@@
gegeven,
geluk.
gemeinsame
gens.
genügend
gering@@
gewa@@
gouden
groeiende
grosse
grotendeels
herum,
hinten
i:
iens
interessanten
introduc@@
ions@@
irgendeine
is."
iti@@
jährigen
ke.
kel
klu@@
krijgt,
ks,
kwart
kühl@@
kün@@
landbouw@@
lasse
leefden
lokalen
lun@@
maar.
maken?
meist
mittlerweile
modell
moment@@
moralischen
nachzudenken.
nah@@
neuronen
niveau.
notwendig
nä@@
nötig
oefen@@
omlaag
ontstond
origin@@
pak@@
pers@@
persoon,
ppen@@
program@@
roof@@
rufen
s".
schar@@
schä@@
sech@@
seksuele
selec@@
sitzt
solange
soweit
sprü@@
status
steiger@@
stellt,
stierf
stof.
structuren
studies
technologie@@
toekomstige
toepass@@
trenn@@
trouwens
tweede,
umm@@
ungssyste@@
vergangenen
verm@@
vernieuw@@
verra@@
vervan@@
viele,
vierkante
vlucht
volk
voorberei@@
voordelen
voorspellen
werkelijke
westlichen
wissenschaf@@
wü@@
zag.
ziel
zoeken,
zolang
ë,
%.
1-@@
3D-@@
95
Abl@@
Ad@@
Angeles
Argu@@
Außer@@
Beweise
Brow@@
Bürger@@
Computer.
Dafür
Dimensionen
Dün@@
Emotionen
FG:
Fehl@@
Flo@@
Freu@@
Gefahr
Geschichten,
Gesellschaft,
Gottes
Hem@@
Hetzelfde
Hoewel
Ingenie@@
Jim
Kaffee
King
Lachen
Leu@@
May@@
Mutter,
Mädchen,
Nä@@
Okay?
Rob
Rätsel
Rücken
Steuer@@
Street
T.
Technolog@@
Tochter
Versu@@
Vorstellungen
West
Wil
Willen
Zahn@@
Zweck
absol@@
afkomstig
afrikanische
alismus
analyse
arbeitet,
ary
aspecten
ath@@
aussehen.
bede@@
begonnen.
bekomme
benötigen
beroemd
berühr@@
bevor@@
bez@@
bilden,
blad
bleiben,
blijf
bus
ca
ce.
concentr@@
coole
cultuur,
delijk@@
dienen
diversiteit
dran@@
drukt
dus.
egal,
eindigen
einiges
elen,
elk@@
emoties
endste
engag@@
erseits
erte
eruit@@
erwartet
fase
fiel@@
folgende
gele
gemeenschappelijke
genees@@
gerä@@
gestell@@
gevangen
gewend
gezogen
glaub@@
hinaus@@
hn
hoo@@
hoop@@
ics
iedereen.
ief.
iere,
ierte.
ijs@@
industrie.
instrument
ischen,
iteit@@
ium,
ië
kenden
klam@@
kolonie
kopen,
kracht.
kunstenaar
kw@@
leggen,
lieb@@
maschine
mische
mogelijkheden.
naar@@
nab@@
ney
ograf@@
ontwerper
ordn@@
orient@@
pack@@
percentage
pfen
plannen
platz
politie
prob@@
produceren.
punkt
reden@@
regi@@
reiche
rip@@
robo@@
runter@@
schade
schakel@@
schoon
schoon@@
schwer,
schwierig,
schön,
senden
serieuze
so:
statistieken
tatsächlich,
teilweise
teken
trag
träge
typisch
uitleggen
ungsp@@
ut.
vaste
vende
verandering.
verantwor@@
verbreitet
verenig@@
verrückt
verschrikkelijk
verwer@@
vingers
vogel
volgend
wander@@
weiße
werden?
werking
wijzen
winnen.
wis@@
wählen
wör@@
wüs@@
zeug
à
äd@@
öhn@@
überleben.
'-@@
85
9,
Ansicht
Ausbildung
Autor@@
Billionen
Bl@@
Boston
Brücke
Bürger
Dankuwel.
Dean
Demokr@@
Depress@@
Der@@
Effe@@
England
Erfol@@
Europese
Fig@@
Funktion
Genom@@
Ghan@@
Grand
Grie@@
Hab@@
Helaas
I.
Infe@@
Ingenieur@@
Irgend@@
Katastrop@@
Kindheit
Kommunikation
Kreis
Kultur,
Lass
Leider
Lernen
Mas@@
Media
Mär@@
Organ@@
PE@@
Regierungs@@
Regionen
Resultat
Staat
Statist@@
Straßen@@
Stro@@
Szen@@
Th@@
Unternehmer
Werbe@@
Werk
West-@@
Wissenschaft,
Wolfram
Zun@@
a?
aam@@
abil@@
atheï@@
aussieht,
bedrijf.
begreep
bereik
besef
betaald
bevat@@
bezeichn@@
binnen.
bringt,
centr@@
cognitieve
commerciële
dagen.
dak
dan.
dauerte
deel.
dok@@
dokter
dood,
draag@@
draagt
dramatisch
einfaches
emotion@@
erei@@
ernsthaft
erzähl@@
etwas.
fließ@@
gedrag.
gegaan
gelesen
geren
gesprochen.
gevaarlijke
gezin
gezonde
glamourö@@
glimla@@
goedkoop
groeit
grund@@
heiten.
herr@@
hetgeen
hey,
identifiz@@
iers
iesen
illa@@
ine.
insbesondere
iteiten
kan,
kenmerken
klaar@@
koffie
landse
leraar
liggen.
links,
luisteren.
mann
maxim@@
moeilijk.
moleculaire
muis
musste,
nachdenken.
nis.
obser@@
ontzettend
onzichtbare
oorlog@@
opp@@
passier@@
personage
pje
plotseling
pool@@
prote@@
präsent@@
recyc@@
ring
roo@@
rote
sches
schick@@
schok@@
sek@@
sess@@
soe@@
sogenannten
span@@
sprach,
spreek
staart
stellung,
sterben,
stier@@
studen@@
term
toestand
toll
unten.
verhandel@@
verändert,
virtuele
vorbei
vraag@@
welt@@
werkte.
wid@@
wiens
wij,
wil,
wirklich.
wu@@
wunderbaren
zand@@
zuiver@@
Ähn@@
öff@@
ön@@
--@@
2004
3-@@
3.@@
60.000
70@@
AM:
Anim@@
Ausstellung
Bevor
Bewegungen
CA@@
CD@@
Design,
Ergeb@@
Euch
Feu@@
Gates
Gibt
Glei@@
Gre@@
Gut.
Hall@@
Hor@@
Indiase
Karriere
Kern
Klang
Kleine
Kohle@@
Kranken@@
Lat@@
Mengen
Mom@@
Nam@@
Oel
Open
Orte,
Pfund
Pl@@
Plastik@@
Politiker
Polizei
Q@@
Recht@@
Reser@@
Richtig?
Schlüssel
Spre@@
Stuhl
Viel@@
Viren
Wagen
Washington,
William
Wol@@
aangepast
anden
atoom@@
bb@@
begonnen,
behandeln
belde
beschadig@@
betekent.
blaue
blu@@
bus@@
centimeter
conc@@
creatief
darüber.
de."
debat@@
deden,
del,
design.
diegenen
dimensionale
dliche
draaide
eenvou@@
einen,
entfernt,
eres
erzeugen.
even.
exper@@
fass@@
feite,
feld
fiz@@
gebieden.
gebroken
geeft.
gewonnen.
glücklich@@
gn@@
groe@@
grossen
h!
heer@@
hell@@
herzustellen,
inger@@
interag@@
interessiert,
invloe@@
ive@@
jun@@
kers.
kind,
koop
kunde
l,
lehn@@
lijn.
lop@@
magische
malaria
medizinische
minuut
naarmate
noch.
näher@@
offenen
oké.
ondernemer@@
onderwijs.
onnen
open.
ouden
oven
perfe@@
populatie
pra@@
procent,
radio@@
reger@@
rich@@
samenwerk@@
schap@@
schrijven,
schüt@@
setzt,
show
sie?
sim@@
site
spannende
springen.
starken
statist@@
stau@@
steigt
stig@@
stil
stoppen,
strij@@
synchron@@
tausenden
technischen
tern@@
trans@@
ts-@@
ultieme
vangen
vechten
vent@@
verblüff@@
verbru@@
verdoppel@@
verletz@@
vir@@
voeding
volwassenen
vraag,
vrouwelijke
vrucht@@
wapens
weltweiten
win
wisst
ws
wächst
zoektocht
zonne-energie
zwer@@
ß.
è@@
ütz@@
"Ge@@
10.
19.
2,5
200.000
Art@@
Aspekt
Augen,
Azië
Bab@@
Barr@@
Bedürfnisse
Beweis
Bom@@
Center
Chinees
Diskussion
Einen
Elektrizität
Even
Fla@@
Gedanke
General
Glück,
Informations@@
K
Konfer@@
Konflik@@
Kop@@
Kreb@@
Lager
Lebensmittel@@
Militär@@
Mode@@
Netzwerke
Nogmaals,
PC
Poly@@
Schle@@
She@@
Sitz@@
Stadt.
Stimm@@
Stun@@
Stück@@
Theater
Tim
Vo@@
Weise.
Wettbewerb
Worten,
Yo@@
ane
angen
antwoor@@
architect
arm,
arts
befinden.
begeg@@
begrijpt
behoeften
beneden.
beobachten,
betrie@@
bewir@@
binnen,
blauen
bree@@
bür@@
cher.
communicatie
compon@@
dern,
derzeit
dit:
dollars
drüben
ds,
durch,
eel,
elektronische
entsteht
ertoe
eur
fabrie@@
fliegen,
fliegen.
gd.
gebra@@
gelegd
gelegenheid
gelooft
genetischen
gib@@
gier@@
glichen
gras
grau@@
groot.
grünen
gur@@
hebben@@
hätten.
ilen
illustr@@
initi@@
inspiriert
issen,
ium@@
ive
iver@@
jeug@@
junger
kant@@
klas
kloo@@
kno@@
komm@@
kort@@
kten.
ktiv
kunstmatige
lagere
legde
maker
medeleven
model@@
ms.
muster
oberen
ografie
oké,
omm@@
onbe@@
onderwer@@
oorsprong
pas@@
pflanzen
phys@@
press@@
psychologische
reagieren
revolution@@
richtung
rum.
same
schaal.
schilder@@
schuldig
schule
schwan@@
sei.
setzt.
sind?
smel@@
spezi@@
spiritu@@
stamm@@
steun@@
stren@@
sy@@
tige,
tje.
tum@@
ut,
va
verbreit@@
versuchten
verteil@@
verzameling
vest@@
visuelle
vlieg@@
voorsp@@
vriendelijk@@
vrienden.
vul@@
vuur@@
wasser
wat?
wenigstens
weshalb
wijzig@@
worum
wundervolle
zonlicht
zwar@@
“.
"Hey,
00
Absol@@
Alexander
Alpha
Anwendung
Arm@@
Astronom@@
Bedürf@@
Beide
Bienen
Bij@@
Cap@@
Cre@@
Denk@@
Elektron@@
Existenz
Firma,
Ford
Frieden@@
Gefängnis
Hun@@
Individu@@
Information@@
Kateg@@
Kinderen
Kommen
Kraft@@
Krise
Liebe,
Länder,
Mathematiker
Maus
Mein@@
Modell@@
Möglichkeiten.
Natur.
OK
Ob@@
Person@@
Power@@
Pra@@
Sahara
Schwester
Schwierigkeiten
Science
Spra@@
Sprachen
Stanford
Sti@@
Tei@@
Titan
Wachst@@
Werkzeug
Wieso
Wild@@
Wright
Wurzeln
Ziele
Zimmer
abel
achtig
aktu@@
aliseerd
anders@@
anhand
anstelle
appar@@
apparaten
artik@@
artsen
basierend
beantwoor@@
bedoeld
begeistert
beginn@@
bekommt,
beper@@
bericht@@
berühm@@
besteht,
betrachtet,
beunruh@@
bijen
biljoen
blie@@
bot
bovenaan
breed
ce,
circa
complete
cont@@
cultuur.
dahin
detec@@
dron@@
drän@@
eet
eft
enheit
essentieel
eter@@
exponenti@@
feiten
for
fort.
functies
fysica
fühlen.
g-@@
geeft,
gefragt,
gelebt
gericht@@
gesetzt.
gevangenis
gewesen.
gram@@
groeien,
grundlegenden
helpen,
hem,
hing
ichten
ieder@@
iff@@
ike
inkom@@
isiert
kamen.
kerst@@
keur@@
knop
koolstof
korre@@
koud
lange,
lebten
lichaam,
lustig
ly@@
machte.
mag,
mas@@
medit@@
minist@@
mit,
mitzu@@
moeder.
momentan
myth@@
na.
natuurkun@@
nicht."
noemde
nood
nucleaire
o:
ondernemers
ontplo@@
pagin@@
passieren.
pin@@
plast@@
platz@@
pri@@
reclam@@
replic@@
rivier
samen,
schaue
schließen.
schock@@
speziell
sprachen
spreken,
staande
sterf@@
stieg
stuk@@
sum@@
synthet@@
syste@@
terug,
testen,
teuer
tevens
therapie
tion.
treten,
tä@@
untersuchen
ursprünglich
vel
verbreiten
verbringen
verdubbel@@
verlam@@
vermoor@@
versorgung
vindt,
vlu@@
voer
voeten
voorstellen.
vr@@
vreselijk
vreselijke
wind@@
woestijn@@
wären.
y"
ze?
zich.
zichtbaar
zochten
zugänglich
zuid@@
zun@@
zwaartekracht
äuf@@
ële
ën,
ën.
”
,000
Alan
Anrei@@
Arbei@@
Arme
Armen
Ausdruck
Berge
Bibliothe@@
Bis@@
Blogs
Brown
Bö@@
Computer,
Damen
Darstellung
Fertig@@
Funktion@@
Gegend
Gras
Grippe
High
Hong
IM@@
Immer
Julia
Kameras
Knochen
Konflikt
Konsu@@
Malari@@
Mur@@
Norden
Ohne
Ort.
Phantom-@@
Pier@@
Sach@@
Schwier@@
Spektrum
Studen@@
Sylvia
Taliban
Tests
Universiteit
Vietnam@@
Vö@@
Weihnachts@@
Wüste
Yor@@
aanvaar@@
aap
af:
alien
allem,
ar.
arbeitet.
atur
aufbau@@
az@@
bahn@@
beelden.
begra@@
behandelen
bericht
betalen.
bleven
bo
bouwt
breng
broer
buur@@
ca,
camera's
ce-@@
conflict
creëren,
dame
dd@@
dden
designers
dodelijke
dürfen
eeuwse
effektiv
effizi@@
eigentliche
einz@@
elektro@@
en'
entie.
ergibt
erklär@@
erreicht.
ey@@
factoren
fec@@
fenomeen
folgenden
foto,
freu@@
gab@@
genug.
geschikt
gewinnen.
gezet.
geïnspireerd
greifen
griffen
h:
handelen
harde
herausfinden
hij.
hoorden
houdt,
hout
huil@@
hyper@@
ieu@@
igte
indischen
ingen@@
iseerd
iseren
ite
kennt
keten
kken@@
klok
ktion.
kub@@
kulturelle
kämpfen
leest
lung
lungen
mache,
machin@@
meten.
mitglie@@
mpft
nahme
natuur,
neigen
nieuws@@
nimmt,
niss@@
onderzoek@@
onderzoekers
onderzoeks@@
ontwikkelingslanden
oploss@@
ore
osit@@
partner
passiert?
proble@@
prototyp@@
präsentiert
ps@@
rechterkant
rechts.
relevant
retten
run@@
ry.
schaal@@
schien
schrijver
schöner
sehen?
sey
slaat
spiele
spun@@
ssystem
stabilis@@
starten.
station
stik@@
stimmung
stran@@
straten
strip@@
struktur@@
stuk.
tat,
tele@@
televis@@
test.
tiefer
to-@@
ton,
tonen,
transpar@@
tussen@@
uitzien.
ungewöhn@@
unternehmen
vaccin@@
vaker
val.
vend
veran@@
verbeelding
verbessern
verbessern.
verkeer@@
verwendet,
verwijder@@
vet
voegen
voneinander
voorouders
voren
waarts
wat@@
weisen.
well
welzijn
wich@@
womit
woorden@@
zeigt.
zykl@@
Überleben
öffnen
20-@@
2009
Afrikaner
Ahnung,
Bereichen
Bijvoorbeeld
College
Cro@@
Dau@@
Dor@@
Echt
Ehe@@
Einfachheit
Eins
Engeland
Ep@@
Ereign@@
Ernährung
Essen,
Everest
Evolution@@
Faktor
Fl@@
Gehen
Glas
Gründen
Haf@@
Hat
Hau@@
Hühn@@
Ja?
Jane
Korallen
Kro@@
Letz@@
Level
Minute
Mü@@
Nase
Niets
Pinguine
Probeer
Prozent,
Quadrat@@
Rea@@
Rechn@@
Rick
Sachen.
Sit@@
Statistiken
Strom@@
Student
Stücke
Sur@@
V-@@
Verfüg@@
Volks@@
Webseite
Würde
X-@@
Zucker
aktuelle
als@@
am.
an-@@
ansehen
ansieht,
ater@@
batter@@
bedrijfs@@
beheer@@
bekeken
bemer@@
beobacht@@
beschrij@@
besser,
besser@@
bestaat.
besteh@@
bestond
betekende
blauw
blei@@
blijkbaar
buch
chtige
concurr@@
dachte:
daten
doel.
domein
duurzaam
dw@@
dynamische
eck
edi@@
ema@@
entdeckt,
entfernt.
entgegen@@
erfahren
erheb@@
erklären.
etzung
filosof@@
fysiek
gebruikers
gegaan.
gehoor@@
gekommen.
gelegen@@
geloofde
gend,
gend.
generaties
genomen,
genommen,
geschiedenis,
gezondheids@@
griep
groep.
gun@@
had@@
heiten,
herausgefunden,
hie@@
hinder@@
hoeveelheden
hoff@@
houdt.
hr
hung
häss@@
ian
ica.
iche
ieerd
ific@@
infra@@
ingewikkeld
interne
intuï@@
iron@@
ium.
kaart.
karakter@@
kil@@
klar.
kletter@@
klinische
klopt
konsum@@
kostenlos
kreativen
kunsten@@
ler.
liefde.
liefer@@
liegen,
logisch
loop@@
läuft.
metaf@@
minuten,
minuten.
mot@@
muren
mögen,
navig@@
netten
niveaus
oben,
olen
oloog
oma
ond,
oneindig
ontdekken.
ontwikkelden
ontwikkelings@@
ook@@
oorlogs@@
overlev@@
partner@@
ph
plots
politie@@
prima
princip@@
probleem,
produz@@
ramp@@
real
reinig@@
rood
saßen
schol@@
schutz@@
sensor@@
slim@@
slot
speelde
spielte
spot@@
spä@@
stelsel
studio
stuur@@
taal.
ten-@@
trinken
uitgevonden.
uitzoeken
universele
unterstütz@@
uw@@
vaccin
verbesser@@
verbeteren
verbunden.
vergelijken
verhaal@@
verkoo@@
verschw@@
versuche,
versuchen.
vertell@@
vorder@@
vroeg:
vullen
walvissen
warten,
watt
weiß@@
werkende
z'n
zeit,
zelfde
zell@@
zenden
zieken@@
zil@@
zorgen.
zweimal
überleben
überzeu@@
’@@
"St@@
"Z@@
50%
Abschluss
Akte@@
Anstatt
Autor
BB@@
Baum@@
Bein
Beste
Bijna
Bijvoorbeeld,
Brad
Camp@@
Code
Danach
Def@@
Designs
Diagramm
Doktor@@
Dreh@@
Eigent@@
Entfernung
Exper@@
Fall.
Fall@@
Farb@@
Fut@@
Fünf
Füße
Gas@@
Gebie@@
Gordon
Hilfs@@
Klin@@
Komplex@@
Kopf.
Kore@@
Kulturen
Kunst,
Kä@@
Lauf@@
Lebens,
Leh@@
Magazin@@
Mann@@
Mark
Nadat
Overal
Patri@@
Potential
Potenzial
Prinzipien
Program@@
Psychologie
R-@@
Rand@@
SETI
Satz
Schn@@
Schutz
See@@
Spekt@@
Spiel.
Sü@@
Text@@
Tit@@
Ton
USA.
Unterschie@@
Vanaf
Vanuit
Vele
Verlust
Wat@@
Wirkung
Wohlbefinden
Zeichen
],
aag
abl@@
academ@@
ach
advis@@
afvragen
alität,
anti-@@
ator.
außen
ball
befindet.
behaupten,
bere@@
beschrän@@
besseres
betrei@@
bevolking.
bibliotheek
bildung
block@@
brengt.
brillan@@
brü@@
buitenlandse
bung
carrière
chemie
daad
daarbij
dagen,
daran.
ders.
dheid
digheid
doen@@
doppelt
economie,
eingesetzt
eln.
entdecken,
ente@@
entje
erleben
ermöglicht,
erw@@
exakt
fassen.
focu@@
fügen
fün@@
gat@@
geboorte
gebouwd.
gefr@@
geschafft
gezichts@@
gezondheid@@
geëvolueerd
go.
grüne
haast
handeln
herstell@@
hilft,
historisch
hol
houding
höheren
hüb@@
ichte
ijnen
ikken
ingspro@@
interessant@@
internet,
je:
kanten
keer,
keit
klein,
koning@@
konzentrieren
kreb@@
krise
kunnen,
künstliche
laa@@
lag.
lamp@@
lebende
lex@@
linge
links@@
lob@@
lock@@
lust@@
mente,
minstens
mm
na,
nahmen,
nervö@@
nete
ns
oh
onderhandel@@
ontmoet
ontstaan.
pakte
passieren,
plaats,
plant@@
poten
prijs@@
proces,
psychologie
publie@@
rare
reclame
reduz@@
reflekt@@
respec@@
ruim
rum@@
sammeln.
scheinbar
scheint,
schwere
selen
seltsam@@
signaal
slagen.
soorten.
sprei@@
spullen
späten
stammt
steek
stelling.
stellt.
stärker
synthetische
televisie
teruggaan
thuis.
toege@@
tor@@
uitvinding
uitvoer@@
universum,
unteren
untersuchen,
verandert.
verbra@@
verf@@
verhalen.
verlen@@
veroorzaa@@
verse
vertro@@
vervo@@
vlucht@@
voeden
vroe@@
wa
waar,
waardig
wachten.
wegen.
willekeurig
wirtschaft
wissenschaft@@
wollten.
woran
worauf
wunderbar
wünsch@@
zeiden,
zicht.
äm@@
überwältig@@
überzeugen,
$
00.
130
190@@
1960
20ste
47
AS@@
Analyse
Arbeit@@
Aspekte
Aufnahme
Auswahl
Bat@@
Beispiel@@
Bewegung.
Bijbel
Bill@@
Biologen
Chines@@
Daarmee
Drei
Entstehung
Genom
Gew@@
Gipfel
Goed
Gran@@
Große
Gän@@
H
Innerhalb
Iran@@
Jonathan
Klasse
Lar@@
Lee
M:
Mehrheit
Metern
Mund
Muskel@@
Muster@@
Nation
Natur,
Neben@@
Neuronen
North
O-@@
Oba@@
Popul@@
Quellen
Raum.
SJ:
Sand
Schließlich
Schwei@@
Sequ@@
Sierra
Sing@@
Staats@@
Standard@@
Stick@@
Strand
Sä@@
Tar@@
Tiefe
Titel@@
USA,
Uns
Untersuchung
Verantwort@@
Wach@@
Weg@@
Werden
Wis@@
Wochen@@
aan?
achter.
agen
ak
allemaal,
an."
anschaut,
antrop@@
argument@@
auseinander@@
baby@@
bedrijf@@
bedrijven.
behandeld
beispielsweise
belan@@
bescher@@
beschrijft
besie@@
besp@@
bestaat,
betal@@
bewa@@
bewegt.
bewohn@@
bewuste
biedt
blanke
braucht.
brech@@
budget
buiten.
campagne
chern
complex@@
ctu@@
d"
dagelijkse
dal@@
denen,
dge@@
diges
dje
doch,
doe,
doorgaan
downlo@@
econom@@
einig@@
ek.
enen.
energ@@
erfahren,
erforsch@@
ergste
erkennt
erklärt,
ernähr@@
erst@@
erstaun@@
erzählt,
existieren
factor
fiets@@
fig@@
fles
flexi@@
fort,
führten
fürs
gedeel@@
geest.
gegangen.
gekregen
genau,
glo@@
griff@@
großartig.
hangen
heet,
heute.
hierop
hoop.
hä@@
iPod
ierung,
ime
inc@@
ingss@@
intuit@@
investeren
ip.
ire@@
jec@@
kapitaal
kels
kkel@@
klapp@@
klimaat
klär@@
kraft,
ktiven
kung,
können?
langweil@@
leed
leefde
leg
lezen,
loze
läch@@
läuf@@
maken@@
mals
meet
midden@@
moreel
nit@@
nuttig
oel
onderste
onderwijs,
onderzoek.
opzichte
overeen@@
paard
pandem@@
parkeer@@
past.
pian@@
pil@@
pot
prij@@
publiek,
ramp
rik@@
ro-@@
rots@@
räum@@
schilderij
schlagen.
schlie@@
schließen,
schluss@@
schnei@@
schönes
sec@@
sel,
ser,
sich:
sje
sour@@
spectrum
speler
spricht,
spür@@
staten
stehe
steigen.
sticht@@
stur@@
succes@@
sätze
tax@@
teln
toepassen
traditie
trei@@
trie@@
tv
umso
untersuchen.
uwen
verbijster@@
verkenn@@
vermo@@
vern@@
veront@@
verrassend
vielleicht,
voeden.
voelen,
volks@@
vollstän@@
von@@
vou@@
vouw@@
weis@@
winter@@
woher
wäl@@
zaam
zaken,
zende
zent@@
zenuw@@
ziekte.
zinn@@
zozeer
½
Öffentlichkeit
één.
’s
"Be@@
"In
17.
1:
25@@
26@@
2:
30,
4,@@
48
Ameise
Anführer
Anwen@@
Außen@@
Beispiel:
Bereiche
Blätter
Boot
Brief
Cent
DAR@@
Dou@@
Eric
Erinnern
F
Flie@@
Flugzeu@@
Foie
Geef
Gefühl@@
Ghana
Gleiche
Grafik
Grenz@@
Großmutter
Gy@@
Hal@@
Hand.
Hung@@
Industrie@@
Inhalt
Innovationen
Institut
Inten@@
Jan@@
Japan,
Job@@
Johnson
Kolle@@
Kö@@
Lewis
Links
Mac
Machen
Merk@@
Mob@@
Monterey
Muse@@
Musik.
Mün@@
Natasha
Nathan
Neder@@
Nigeri@@
O,
Oli@@
Partn@@
Partner@@
Pau@@
Pot@@
Punkt.
Raumfahr@@
Risik@@
Ruf
Sagen
Sahar@@
Samm@@
Schatten
Schlüssel@@
Schnell@@
Sech@@
Sens@@
Spiegel
Stoff@@
System.
Top@@
Tweede
Tö@@
Uit
Universit@@
Ursprung
Wü@@
Zur
aantallen
aanval
ager
agress@@
altung
aly@@
aufgebaut
ausprob@@
bepaal@@
beroem@@
betracht@@
bevroren
bewegung
bezahlt
bovenste
bril
bureau@@
cer@@
ch-@@
christ@@
cirkel@@
crimin@@
ctie.
culturen
deden.
del.
deln
derselben
dieet
dokument@@
donker
draadloze
dran
drü@@
dustrie
ecosysteem
elijk,
erei
erfüll@@
ermut@@
ermöglichen,
erstaunlich
even,
fallen.
favorie@@
fd
flog
folge
fährt
geavanceerde
gebraucht
gefragt
geheimen
gelaten
gemeen
geneeskunde
genoe@@
geplan@@
geschieht,
geslagen
gesteld.
getro@@
gewinnen
gewoon@@
goederen
graven
gruppe
hang@@
herauszufinden
honger
horen,
hout@@
höchste
ierendes
ima
indi@@
inspireren
intellectuele
it.
iv.
jetzt.
kanker,
kannte
kend,
klei@@
komplexen
kwets@@
kürz@@
lebt.
liepen
loc@@
lokaal
m-@@
maanden.
manieren.
merkte
moder@@
muziek,
nation@@
natuurkunde
nieuwsgier@@
nogmaals,
noodzakelijk
olie.
ondernem@@
onderste@@
onlangs
ontdekk@@
oop
ouw
overtuig@@
piep@@
plaatselijke
planet@@
port@@
prec@@
produzieren.
programm
put@@
rappor@@
reage@@
recht,
richt
rig@@
risico's
roepen
schrie@@
schwa@@
schütz@@
sector
selten
sicher.
situaties
slaap@@
sparen
steigen@@
stein@@
stellen:
stimmen
stol@@
stral@@
suiker
terrein
toch,
toekomst,
traa@@
trends
trok
uitste@@
ungssystem
uze
vast.
verfü@@
verkauf@@
verkaufen.
verre
verstre@@
vertegenwoor@@
vertraut
vielmehr
visueel
vorm,
vrouwen,
waarom.
waaronder
werden."
wirken
wortels
zeichnen
zie,
zon,
änder
übr@@
ücken
-jar@@
3,@@
40.000
?",
?”
Albert
Artik@@
Aufbau
Aufgaben
Ausdruck@@
Beat@@
Bibliothek
Bildschirm
Bri@@
Buchstaben
Californië
Cambridge
D,
Dalai
Darum
Definition
Dienst
Din@@
Eisen@@
Emotion@@
End@@
Ende.
Erfahrung,
Erleb@@
Fei@@
Flugzeuge
Fortschritte
Fotograf@@
Fälle
Gebiete
Geschäfte
Goed.
Hall
IM:
Industri@@
Ingenieure
Institu@@
Integr@@
Interessant
Kind:
Klima
Kommun@@
Korruption
Krank@@
König
Lab
Leonardo
Licht,
Literatur
Mahl@@
Mensch,
Mike
Milliar@@
Mitarbeiter
Mond@@
Mutter@@
Nachbarschaft
Phys@@
Prie@@
Programme
Project
Proto@@
Rab@@
Rode
Schmer@@
Schule,
Sel@@
Show
Smith
Staten,
Stir@@
Stock@@
Studio
Tja,
Trans@@
Trends
Tum@@
Universum,
Universum.
VS,
Vertrauen
Vervolgens
Verwand@@
Viertel
Vit@@
Vorstellungskraft
Vorteil
Wahrscheinlich
Waren
Wereld@@
Wettbewer@@
Wissenschaftler,
Ziel,
Zodat
Zucker@@
aardige
ag,
aktiven
alisme
alisten
als:
also:
ander.
antwoord.
architec@@
ares
aspect
au,
banken
bert
beschreibt
beschrijven
besessen
besluiten
bestuur
bestät@@
bezieh@@
bezoe@@
bijeen@@
bio-@@
blieb
blog
brach
bricht
buitengewone
chern.
collectieve
dalen
darf
deprim@@
dichterbij
die.
doden.
domme
drehte
driehoe@@
dring@@
dü@@
eer,
eigenlijk,
eigenschap
eile
elektrischen
elijk.
en",
entdecken.
entschieden,
er."
ernstig
erober@@
ete.
extre@@
fac@@
fall.
fangen.
financ@@
fossiele
fs
gearbeitet.
gebouw.
gede@@
gefallen
gefällt
gehabt
gehe@@
gekommen,
geproduceerd
gescheiden
geschieht.
gesetz@@
gesetzt,
geslaagd
gesunden
getrennt
gevoelig
gezondheid,
giganti@@
gäbe
haar.
handen.
herein@@
herstellen,
hervorra@@
hinsichtlich
honden
hotel@@
häuf@@
höchsten
iPhone
iffen
ijen
iken.
in:
industrie@@
ing."
irgendjemand
isch-@@
itäten
keren.
klare
kloof
kommunizieren
ktor@@
küste
langsamer
le-@@
les,
lieben,
linie
lächer@@
maakte.
magnet@@
makers
mas
mede@@
mers
messen.
minste
mmel@@
molecuul
nannte
natuurlijk.
negatieve
netwerk.
neus
nut@@
ogenblik
opdracht
opeens
optimistisch
ott@@
oud@@
patiën@@
ra.
ras
reeds
regio
richtig.
roei@@
sagen@@
sche.
schip
schnell,
schoenen
schützen.
sicht
singen
situ@@
ski@@
slavernij
staat@@
steden.
stude@@
städ@@
tal
tech
technieken
teilung
tenslotte
ter-@@
tier@@
time
toekom@@
toen@@
ton.
trek
trokken
tter@@
tuin
tur@@
uitstoot
untersucht
urn@@
vader,
verdi@@
vergelijkbaar
versteh@@
versuchte,
verwandel@@
veröffentlich@@
virtu@@
voorzien
vormen,
vrede
wand@@
wedstrij@@
werfen,
westerse
wonder@@
zand
zoomen
zurückkehr@@
zuurstof@@
zz@@
zählen
ände
"Ja."
"Wa@@
..@@
00.000
2010
Ak@@
Alzheimer
Arabische
Augenblick
Auß@@
B:
Behandl@@
Besonder@@
Bildung.
Blick@@
Blue
Bron@@
CO@@
Chan@@
Dankjewel.
Danny
Darauf
Darüber
Detail
Econom@@
Eltern,
Entdeckungen
Entwicklungsländern
Ereignis
Erfinder
Erforschung
Fokus
Freun@@
Freunde,
Freundin
Führungs@@
Gegenwart
Gerechtigkeit
Hob@@
Hotel
Human@@
Hunde
Hunderte
Häuser
Indische
Inseln
Instrument
Internet.
Island
Jahrzehn@@
Jul@@
Kalifornien
Karr@@
Kijk,
Kirche
Kohle
Kont@@
Kontroll@@
Korea
Landwirtschaf@@
MS:
Medizin@@
Meet@@
Mehr@@
Metapher
Moo@@
Nelson
Ner@@
Newton
Normalerweise
Oceaan
Pakist@@
Pati@@
Photo@@
Problems
Programm@@
Präsent@@
RI@@
RSW:
Religionen
Research
Richt@@
Rin@@
Roh@@
Scho@@
Seele
Serie
Sign@@
Sinn@@
Sinne,
South
Stör@@
Tages@@
Unter
Verwendung
Vijf
Vir@@
Vorstellung,
WI@@
Wann
Wi@@
Zeitraum
Zukunft,
].
aant@@
aas@@
acti@@
afhankelijkheid
ag.
ah,
aids
aktive
alter@@
ana,
apparte@@
atur@@
aufre@@
außergewöhn@@
baas
baute
begrün@@
bei.
bekannt.
beneden,
bereiken,
bereikt.
beschrie@@
beschä@@
besitzen
bestuderen.
betr@@
bevrij@@
bietet
biologen
boeken,
bol
bren@@
cht?
co
communiceren
dahinter
dazu@@
dec@@
deinem
dels
detail
dete,
dienst@@
doen?"
dol@@
draad
drijven
dste
duidelijke
durchgeführt
e!
eid
el-@@
elders
entfern@@
erscheinen
erstaunlichen
erste,
eruit.
erweiter@@
ev@@
fache
falschen
familie.
fern
fest.
folgt
fragte:
fru@@
fung
gas@@
gave
gebruikelijke
gegründet
gekeken
gelangen.
gelezen
geni@@
geraa@@
gestart
geving
geweldig@@
gewinnen,
gewissermaßen
geïn@@
glor@@
grenz@@
griep@@
groep,
groß,
heisst
houd@@
ht@@
hungen
huur@@
ief,
ihn,
ijken
informatie.
intelligen@@
irgend
irgendwelche
ië.
jaren,
jemanden,
jetz@@
jeweils
kaput@@
kent,
klein.
konzentrieren,
kti@@
ktor,
kunst,
kwantum@@
lands
legt,
legte
letztlich
liber@@
loss@@
ma's
makkelijker
meerderheid
merken,
mir@@
möchten.
n-@@
nack@@
neemt.
nest
nie.
nieman@@
nisse.
nom@@
normal
nützlich
onafhankelijk
ongeacht
ontmoet@@
ontwikkeling.
oplossing.
opti@@
organische
overheden
passierte.
pau@@
pende
pinguïns
poly@@
proc@@
proce@@
process@@
processen
professionele
project,
ra,
rak@@
respect
rie
rollen
rum,
ruwe
samenwerken
schauten
schicken.
schlecht.
schnelle
schwarzes
schätzen
schätzen,
schöpf@@
schü@@
sessie
sheid
simpel.
snij@@
sollen,
starb
strand
stü@@
tanz@@
tei@@
tek@@
tenden
teu@@
therap@@
tlicher
toet@@
tox@@
töten
under@@
unterschiedlich
urs
uten.
vaart
verbor@@
verfolgen
vergelijkbare
verglichen
verklein@@
verknüpf@@
verpleeg@@
verrass@@
verschmutz@@
vieles
vuur
weer,
weh@@
wijsheid
woonde
wunderschöne
zeit.
zel
zichzelf.
zige
zuiden
zus
Überall
ätzen
’
„Ich
"?
"Mijn
?'
Abhängigkeit
Anstieg
Atem
Augen.
Brei@@
Chemikalien
Chris,
Clin@@
Comic@@
Debatte
Dinosaur@@
Dollar-@@
Druck@@
E-Ma@@
Elekt@@
Erfahr@@
Erfahrung.
Erstaun@@
Erstens,
Fakten
Familie.
Fein@@
Folgen
Fragen.
Gas
Gedanken,
Gemeinschaft,
Gesundheit@@
Gleichung
Grun@@
Hot@@
Hunger
Indem
Install@@
Interaktion
Jamie
Ken
Konstru@@
Kühl@@
Laptops
Liebl@@
Mars,
Meestal
Metho@@
Methode,
Märkte
Noti@@
Oberflächen
Ordnung.
PM:
Philip
Profess@@
Radi@@
Refor@@
SB:
Saf@@
Scott
Sicher@@
Sonn@@
Spaß.
Sport@@
Symmetrie
TV
Tax@@
Terug
Tony
Träume
Vagin@@
Vater,
Vide@@
Vier@@
Vögel
Wahrnehm@@
Werkzeu@@
Wicht@@
Zeitalter
Zweitens
a's.
afgelegen
air.
alisierung
ame
amer@@
atives
atomen
ator,
attra@@
ausschließlich
außergewöhnliche
ay@@
bedrei@@
beeinflussen
bege@@
beginnt,
beinhaltet
bekannte
bekijken,
bemerkenswerte
beoor@@
bereich
beroep
beschermd
beschermen.
beschouwen
bespar@@
beweisen,
bieten
bij,
bloedvaten
blok
boeken.
borst@@
boten
brak
brandstof@@
britischen
buren
categor@@
cell@@
chnen
communic@@
conclusie
dar.
darunter
dauern
diagno@@
digde
diver@@
dn@@
dragen.
drin
duren
echtes
eenvoudig@@
eins,
eit.
elde
els,
endet
entr@@
erom
et-@@
familie,
fel,
ff
focus
fte,
geboor@@
gebouwd,
gege@@
gehaald
geheugen
gelassen
gelov@@
gemeinsam@@
geschen@@
geschrieben,
gesprochen,
gestre@@
gewassen
gewesen,
gewöhnlichen
gezon@@
gezondheid.
gig@@
gsten
hi
histor@@
hne,
hängen
iaanse
iat@@
iets@@
iger.
igheid.
igkeiten.
ilis@@
illa
illeg@@
infiz@@
innen,
ins@@
insec@@
interessiert.
interface
inzwischen
ippen
irration@@
itu@@
jen@@
jongste
kanker.
kaufte
kennis.
keuze.
kies
kins
klau@@
komplex@@
kopie@@
kraa@@
kter
ktu@@
kwe@@
lar@@
liggende
ligt.
line
lle
lon@@
lot
maar@@
maken."
men."
mens,
milit@@
misch@@
natur@@
neder@@
net,
non-@@
nul@@
omhoog.
on:
onderaan
openen
opnieuw,
organisme
origami
pel
personages
physische
plötz@@
populair
positief
problemat@@
q@@
que
r,
relevan@@
rep@@
rijden.
rijkdom
sammel@@
schauen.
schlau@@
schrift
schro@@
schrän@@
schuld
schwierige
schwimmen
sens@@
sicht,
slechtste
son.
soort.
spannend.
spelers
spellet@@
sprekers
stens
stimmt.
stimu@@
stoelen
stof@@
stoffen.
stromen
succes.
succesvolle
symbool
synthese
tat@@
technolog@@
tienduizenden
toestemming
training
transformat@@
treiben
trit@@
uiten
uni@@
unten,
vagin@@
velden
verfijn@@
verhäl@@
vermenigvul@@
verring@@
vielfäl@@
vil@@
viru@@
visuellen
volles
volu@@
waarderen
weiß.
weltweite
werfen.
wonen.
zee.
zeichen
zentrale
zerstört
zet,
zojuist
zuur@@
zwakke
zweites
Änderungen
ër
ös@@
“,
"I@@
"Maar
"Waar
3D
72
98
99"
Anti-@@
Appar@@
Automobil@@
Barack
Begriff@@
Belohn@@
Berei@@
Bildungs@@
Biosphäre
Blumen
CE@@
Chancen
Cheryl:
Delhi
Design.
Diam@@
Dingen.
Dinosaurier
Dop@@
Drogen@@
EE@@
Emissionen
Epidem@@
Ereignisse
Erfolg.
Foundation
G-@@
Gebäude,
Gegenden
Gehirn,
Gehirne
Ges@@
Geschle@@
Gesichter
Gewebe
Gewinn@@
Gewoon
Gil@@
Herstellung
Hollywoo@@
Impfstoff
Inspiration
Instrumente
Ja!
Jefferson
Jugend@@
Kindes
Kit@@
Koch@@
Kohlenstoff@@
Kolonie
Krebs@@
Kreuz@@
Kurz
König@@
Künstler@@
Lond@@
Minist@@
Minuten.
Nahr@@
Nationale
Natuur@@
Opfer
Peri@@
Person.
Physiker
Pingu@@
Pollen
Problem@@
Py@@
Raub@@
Rechte
Rond
Satellit@@
Simul@@
Sonnensyste@@
Standpunkt
Sto@@
Str@@
Städ@@
Technologien,
Tot@@
Treffen
Uhr@@
Unterhalt@@
Unterneh@@
Unternehmen,
V.
Vaak
Ven@@
Verlauf
Vooral
Waffen
Weer
Wunder
Zentral@@
Zwan@@
aam
ace
ale.
alem
ambit@@
aner
angesch@@
ase
aufgewachsen
aufnahme
auto,
begannen,
behinder@@
bekannt,
bel.
bell@@
belo@@
beperkte
beren
besagt,
beschreiben
besluit
bezoek
bom
brechen.
bs@@
chtig
consumenten
contac@@
continu
cou@@
crisis.
cruciale
cus
cy
d?"
decennium
denk,
drehen,
eenvoud
ef.
elt,
entspricht
erfunden.
erhö@@
etzt
evenwicht
externe
familie@@
fand.
fantoom@@
fe.
fel
foie
foto's.
fract@@
fragt,
gebeurten@@
gebeurtenis
gebiete
gedreven
gehören
geluiden
gemessen
gendes
genoten
gera@@
geraken.
geschwindigkeit
geschütz@@
gewerkt.
gewöhnliche
gezicht@@
gie
glazen
greifen,
haben."
handels@@
hast,
haus@@
hebben?
heel@@
heißen
helaas
hingegen
hre,
hun@@
hält.
iedereen,
ierungen
iff
igheid,
informatie,
ingewikkel@@
ingsp@@
inneren
investieren
ip,
ischerweise
isierung
itä@@
itäts@@
journal@@
jährige
kab@@
kamer,
kamer.
kijk,
kontrollieren
kosm@@
kosmische
kreative
kt."
kundigen
kung.
kümmern
lebe
leichter
leten
lich:
liedje
llen
loy@@
lucht,
ma's.
materiaal.
maßen
meister@@
meren.
meter,
milli@@
mittleren
müsste
nee
nu?
nung
oceaan,
olifan@@
omet@@
omwille
onderschei@@
onderzoek,
onom@@
ontsn@@
ontwer@@
ontwerp.
oot.
oplever@@
opnieuw.
optische
ose
overheids@@
partners
peri@@
persön@@
pit@@
planten,
platteland
politici
populaire
present@@
prestat@@
promo@@
raffin@@
reacties
religies
rennen
respekt@@
restaurant
retten,
s!
sahen,
schaften,
schlaf@@
schlech@@
schließt
schreckliche
sem@@
september
sequentie
skop@@
sorgen
spannen
spielt.
spirituele
spraa@@
staan@@
stadium
steen@@
steigen,
stein
steuer@@
sti@@
stoffen,
streven
studi@@
suchte
systemen.
teil,
telescoop
telijk
tellen
telt
tijds@@
tingen
trend
trieb
tuig
uiteen@@
ulen
uner@@
uniek
unterhalb
vaardigheid
veer
verdeling
verdwenen
verdwijnen.
verglei@@
verlieren,
verschie@@
verstan@@
verstanden,
versteht
verwijderd
vieler
vindt.
vis.
volgen,
volkomen
voorspell@@
vrienden,
waardige
weißt
wek@@
wird?
woestijn
wonderbaar@@
wussten,
wählen,
yn
zaden
zeg,
zeichnet.
zes.
zusätzlich
zwaarlij@@
zwemmen
öffentlich
übrig
"Wel,
"de
11@@
37
Aarde,
Agnes
Ah,
Angebot
Architekt@@
Arten,
As@@
Atem@@
Aufmerksamkeit.
Bericht
Bildung,
Bin@@
Boden@@
Bol@@
Bundes@@
Commun@@
Computern
Deutschland
Dien@@
Dur@@
Durchschnitt
Einheit
Entdec@@
Erinnerung
Erkenntnis
Flasche
Frauen.
Frem@@
Fro@@
Full@@
Führer
Fünf@@
Geck@@
Gegenteil
Gerü@@
Gespräch
Graf@@
Großen
Haare
Handl@@
Haut@@
Hebben
Heeft
Herausforderung,
Hier,
Hinblick
Hirn
Hoffnung,
Hyper@@
I-@@
Impf@@
Insekten
Jack
Jag@@
Jam@@
Jedenfalls
K.
Kab@@
Kompon@@
Kraft,
Krieges
Königin
Körpers
Lebenserwartung
Licht.
Löcher
Male
Mangel
Manhattan
Margaret
Milo
Modell,
Nahrungsmittel@@
Nutzung
Pack@@
Persön@@
Press@@
Probleme.
Programmier@@
Radio@@
Rak@@
Rechen@@
Rechts@@
Respekt
Saturn
Schach@@
Schimpan@@
Schlu@@
Schwein@@
See
Sinn.
Spieler
Stamm@@
Stein
Strategie
Straß@@
Ten@@
Tim@@
Tradition
US
Ungleich@@
Unterwasser@@
Verbrechen
Versuch,
Welk
Wohlstand
Y
YouTu@@
Zerstörung
Zeug,
Zivil@@
acht,
activiteiten
ala
ald
allebei
allen@@
an:
angef@@
anwen@@
arm.
artigen
asse
ausdrück@@
autor@@
baby's
bad@@
balans
band.
befest@@
begon,
behandelen.
belon@@
benden
beperkingen
beschei@@
betekenen
bevindt
bevolkings@@
bevorzu@@
bewu@@
bid@@
blogs
boor@@
brachte.
breed@@
breken.
bron@@
buiten,
cal@@
centraal
chemischen
chip
chocol@@
cijfer
cijfer@@
confer@@
decennia
dehn@@
dern.
diepte
documen@@
dorpen
dreh@@
dum@@
dungen.
dynamisch
e".
ee
eerde,
eeuw@@
einziges
ek,
elit@@
emotie
emotioneel
empath@@
enkel@@
enormen
entscheiden@@
entworfen
erkannte
ernstige
erscheint
erstellt
fas@@
fassen,
format@@
froh,
fuhren
fur@@
gangen
garant@@
gebeten
gebeurde,
geboren,
gefährlich
gehad,
gehend
geleidelijk
gemen@@
gen?"
genoemd,
gent@@
geobsedeerd
gere
gerufen
geschrieben.
getroffen,
gevol@@
gewoon.
gezichten
giftige
glau@@
go
graad
grap
haben:
halte,
harte
heette
heim@@
heiße
herinnert
hieß
hoffnungs@@
how
huid@@
humanit@@
höher@@
id.
ief@@
ieken
iemands
inklusive
inmitten
intensi@@
interessieren
investeringen
iseren.
izz@@
jenseits
kathol@@
kau@@
keinem
kelijk.
kennen@@
kg
klimaatverandering.
knop@@
kontrollieren.
kraft.
krank@@
kranten@@
kris@@
krä@@
kust@@
lagen.
letzter
lijkt.
linkerkant
maal.
maat
mach
makkelijk@@
material
mega@@
mehreren
melden
methoden
miljo@@
mischen
mode@@
moral@@
multi@@
neemt,
nodig@@
ode
ologen,
ologie@@
ologischen
onafhankelijke
onderne@@
onderwerpen
ontwikkelt
organiseren
ouders.
overal.
oze
pakk@@
pakken,
passierte,
pert
planten.
pper@@
rang@@
raten
rechts,
rechtstreeks
refer@@
renn@@
reu@@
richtungen
riesiges
risk@@
roep
rug@@
sage:
sagen?
schepp@@
schlimmsten
schmerz@@
schwi@@
seid
sein."
sequenz@@
simpel@@
slecht@@
spektakul@@
staats@@
stadi@@
standaar@@
standen.
sterker
stijgen
stijgen.
stuurde
stücke
swer@@
symmetrie
symmetrische
systematisch
systemen,
taten,
teur@@
tionen
toll,
toneel@@
transfor@@
trop@@
uit?
uitvinden
ungeheuer
ungspro@@
unterschei@@
ursprüngliche
utes
verbeel@@
verbouw@@
verei@@
vergro@@
verkeer
verkün@@
verlangsam@@
verloren,
verouder@@
verschieden
verschwen@@
versla@@
verspreiden.
versteck@@
vierte
vijfde
voll.
voorwerpen
vra@@
vracht@@
waarschuw@@
werkelijk@@
woont
währ@@
zufäll@@
ärmsten
ëren
.000.
/
0
16.
180
2-@@
43
A:
Aff@@
Agen@@
Analy@@
Anderson
Anfän@@
Annahme
Anruf
Band
Bio-@@
Bow@@
Bret@@
Brust@@
But@@
Bäumen
Carnegie
Chemie
Crick@@
DG:
Danke,
Dinger
Diplomat
Ed@@
Egyp@@
Enkel
Experi@@
Explosion
Familie,
Flücht@@
Form,
Form.
Form@@
Francis
Frankreich
Frie@@
Gedanken@@
Gemeinschaften
Geschä@@
Gesell@@
Gewinn
Gleichgewicht
God.
Gold@@
Gott.
Gut
Harry
Hoe@@
Identit@@
Inhalte
Interessan@@
Internet,
Ivan
Jahres@@
Joe
Joshua
Jur@@
Kampf@@
Kohlenstoff
Kopenhagen
Luft.
Mak@@
Market@@
Mart@@
Mel@@
Mitglieder
Moore
Moral
Murray
Müt@@
Nar@@
Nie@@
Null
Origin@@
Philosop@@
Polit@@
Population
Rah@@
Rass@@
Red@@
Redu@@
Richtungen
Schritte
Sinds
Som@@
Sputnik
St.
Stiftung
Studi@@
Säu@@
Süden
TS:
Toten
Ungefähr
Universitä@@
Vergnügen
Versuchen
Vertel
Voordat
Vulkan@@
Wander@@
Wasserstoff@@
Wissen,
Wow.
Zehn@@
Zero
aangedreven
aanwij@@
advies
all.
amin@@
angefangen,
atmosfeer.
ausgesetzt
beantworten.
begelei@@
begriff@@
bekijkt
bekijkt,
bekl@@
bereit,
berg.
beschloss
bev@@
bewegende
bewus@@
bezit
bezorgd
binnenkort
bizar@@
bloemen
bouwden
broers
cat@@
chimpanse@@
chter,
cir@@
cirkel
cker@@
ckt,
clip
controle@@
daaraan
dann?
darstellt.
decenn@@
deeltje
deling
demokrat@@
ders,
dert
designer
diert
dies.
dings@@
doc@@
doe.
drinken
drupp@@
durende
efficiënte
ehl@@
eindeutig
einen.
elimin@@
elt.
en.“
entdeck@@
ente.
entsch@@
erfinden
erfolgrei@@
erkun@@
erreich@@
ervaring,
eur@@
evolutie.
fach
fassung
feststellen,
flug@@
formen.
fts@@
fällt,
förm@@
gaan?
gearbeitet,
gebiet
gedrags@@
gegangen,
gekozen
gelangen,
gespr@@
glamoure@@
glij@@
graan
gren@@
grundle@@
gste
gänge
haar,
halben
hallucin@@
harmon@@
helder
herausgefunden
herkennen
hielten
hinauf
hir@@
hoben
här@@
identiteit
ieman@@
ierender
ifiz@@
igkeits@@
ingsc@@
innere
insgesamt
inspiratie
investieren,
irdischen
irgendeinem
irgendeiner
iver
jenen
kerk
kernenergie
kette
kijkt.
klassische
komplizierte
koppen
koralen
ks.
kste
kön@@
kör@@
lachen
later.
lebt,
lees
leven?
liter
ländlichen
m'n
maatschappij.
machen."
mechanisme
meis@@
mix
moeilijker
musste.
nan@@
neg@@
nerve@@
netz@@
nieder@@
noemden
ocean@@
offizi@@
ograph@@
ok,
onderscheid
ontdekkingen
ontwerpen,
oog.
ool.
oorlog,
oorzaken
opgegroeid
orden@@
overgang
patroon.
perfekt
pha@@
physischen
portr@@
praktische
produzieren,
projecten.
pte
put
radicale
react@@
rechtvaardig@@
redenen.
reflec@@
regier@@
resp@@
rik
rond.
ry,
s;
samkeit
schalten
schlimmer
schluss
schrit@@
schwer.
seg@@
slapen
sli@@
soorten,
spoor
spät
stapel
steu@@
stierven
stijging
stisch
stoor@@
strom@@
strö@@
studieren
stun@@
sucht,
sugger@@
tak@@
tatsächliche
teil.
telefoon.
teleur@@
ten;
theorie.
toepassing
toevoegen
trock@@
tungs@@
tuur
uitzicht
uitzonder@@
ular@@
ultra@@
unterstützen
vallei
verder,
verdwijnen
verhinder@@
verkennen
verklar@@
verkop@@
vermehr@@
vermoed
veroor@@
vertraa@@
vervuiling
verwor@@
ville
vliegen,
voeg@@
vond.
voorbeeld:
vorhin
vormige
vorzustellen,
waaruit
warum.
wijn
wirklich@@
witz@@
woor@@
woord.
wörtlich
zame
zat.
zeil@@
zeker@@
zintuig@@
zom@@
zunehmend
zwi@@
Ökonomen
ätze,
ïn@@
"P@@
"Sch@@
"V@@
"Wo@@
'8@@
.000@@
00,
2002
3000
34
90%
900
Absicht
Ada@@
Altern@@
Anerkennung
Angestell@@
Antwort.
Asi@@
Australien
Bandbreite
Bay
Bedeut@@
Bett
Bilder,
Blickwinkel
Blutgefä@@
Brasil@@
Canyon
Chris.
Clinton
Comics
Cur@@
Dam@@
Dann,
Diszipl@@
Dutzend
Dy@@
Effizienz
Element
Ell@@
Ethiop@@
Film,
Finger@@
Fir@@
Fluss@@
Franse
Funktionen
Garten
Gedanke,
Gerä@@
Geschen@@
Gruppe,
Harvar@@
Haus.
Higgs-@@
Hunder@@
Hypothe@@
Hör@@
Ik@@
Industr@@
Irak.
Japan.
Knochen@@
Kum@@
L:
Lamp@@
Lauf
Liebes@@
Lou@@
Louis
M
MIT,
Mann.
Map@@
Medikament
Ment@@
Midden-Oo@@
Mitarbei@@
Mobiltelef@@
Moral@@
Musiker
Noord@@
Norman
Nähr@@
Out@@
P-@@
P.
Ph@@
Pic@@
Platt@@
Restaurant
Rich@@
Röntgen@@
SP:
Schuhe
Shir@@
Spit@@
Südafrika
TEDx@@
Tag@@
Tegenwoordig
Teil,
Ther@@
V
Valle@@
Videospiele
Vie@@
Vielzahl
Viru@@
Vogel
Volk
Vorteile
Vroeger
W.
Wegen
Wieder
Winter
Wirtschaft,
Wissenschaf@@
Wissenschaftlern
Wissenschafts@@
Wähl@@
Wörter@@
Zivilis@@
Zo'n
Zug
aagd
aanpassen
aantrekkel@@
absor@@
akt@@
allgemein@@
allzu
alo@@
alog@@
analy@@
anfing,
anscheinend
aqu@@
armste
atemberau@@
ativ@@
aul@@
autom@@
außer@@
ba
bacterie
beelden,
behalten
belang.
beleids@@
bemerken
bemerkt
berührt
beschavingen
beschrieben
beschäft@@
bestimm@@
betrifft,
beu@@
beïnvloeden
binnenin
blad@@
boden
boord
bou@@
breiten
buitenaardse
cer
citaat
computers,
conne@@
contin@@
cyc@@
d;
darstell@@
dau@@
denn,
denselben
derer
directeur
doen:
dominante
dow@@
draad@@
dragen,
dramatische
droom@@
dubbele
duidelijk.
duiz@@
dunklen
durf@@
ecologische
ee@@
eenvoudig.
eeuwen
efficiëntie
eine.
element
en'.
ende@@
enden.
enen,
enter@@
entstand
erer
erin,
erreicht,
erzeugen,
ethische
fact@@
fat@@
form.
fragen.
frem@@
früheren
ftig
führenden
g:
gebäu@@
gefühl@@
gegevens.
gehoord,
gelegen
gem
gemacht@@
gemakkelijker
geschickt
geschä@@
gesla@@
gestalten.
gesunde
getan,
getragen
gevolgd
gewon@@
gewöhnlich
glaubt,
goedkoper
groepen.
große,
günst@@
haalden
haltung
hang
hart,
heirat@@
hij@@
hilfe
hle
hypothe@@
ieb@@
iegel@@
ieën.
igkei@@
ijs.
inderdaad,
ingt,
innerlijke
ip
jap@@
jou.
kere
kipp@@
kleren
klimmen
km/@@
knip@@
kommenden
kompliziert
koraal@@
korrel@@
kt:
ktionen,
kungs@@
kwesties
künstler@@
laboratorium
lading
langen,
leerkrachten
lernt
let
levensverwachting
lichste
liefdes@@
länge
mag.
magie
mannen.
medicijn
medizinischen
meen@@
messen,
metingen
minder.
mislu@@
mm,
moer@@
mycel@@
mä@@
nebenbei
noemt
nood@@
omgeving,
onger@@
ontwikkeld.
ontwikkelingslanden.
onver@@
openbaar
opwin@@
organen
originele
out@@
persoonlijk@@
praat@@
professor
programma.
puzzel@@
raak
rechter
recken
repräsentiert
rick@@
ritu@@
rt
rö@@
s",
satz.
schicht
schlechtes
schlägt
schme@@
scholen,
scholen.
schriften
schwar@@
seizo@@
sende
set@@
sexy
sicht.
sieve
signalen
sis
skal@@
sluiten
smaa@@
soor@@
soort,
spolit@@
spreker
spru@@
später.
stam
steckt.
stick@@
stond.
straks
streng
stuurden
teerden
tegen.
temperat@@
ten?"
tende
tene
tischer
toel@@
toepassingen
toxische
traditionelle
trat
twit@@
ug@@
uitgevonden
umgehen
ungsfäh@@
ungsver@@
unterstützen.
vaardig@@
vandaan?
vangen.
veerd
verbinden,
vergleichen
verkoop
verlang@@
vermittel@@
verp@@
verscheidenheid
verschiedener
verspreidt
vertrouwd
verwendet.
vibr@@
vloer
voorstelling
vrede@@
vriendin
warmte
weite
wem
wereld?
werknemers
wijst
wir?
woorden.
wärm@@
zakelijke
zar@@
zeige,
zelden
zelf-@@
zers
zess@@
ziem@@
zoek@@
zorgde
zui@@
zusätzliche
züge
Ärz@@
Ökosyste@@
ältesten
übertragen.
"Aber
"G@@
"Wij
1999
5-@@
6.000
80%
AB@@
Allemaal
Amerikaans
Amp@@
Anthrop@@
Arbeiter
Asp@@
Atlant@@
Aufgab@@
Australië
Baumkron@@
Bedarf
Beweg@@
Bovendien
Buch.
Budget
Cam@@
Dies@@
Donn@@
Doppel@@
Dynam@@
E.
EC@@
Eigenschaft
Elefan@@
Emma
Erlebnis
Erschein@@
Erstens
Erwachsenen
Gebiet,
Gebrauch
Gedurende
Gemeinden
Geograph@@
Gerecht@@
Gesundheitswesen
Glas@@
Goldene
Hell@@
Himala@@
Hur@@
IJs@@
Ima@@
Indiens
Jahrzehnte
Jetzt,
Juli@@
Kapital
Konsumenten
Krankenhäus@@
Kultur@@
Könnte
Köpfen
Lange
Leit@@
Logik
Lungen@@
Lux@@
M.
McDonald's
Meere
Middel@@
Mitglied
Momente
Mütter
Namibi@@
Nein@@
Neues
Offen@@
Olympische
Patient@@
Phänom@@
Preise
Proben
Projekt.
Projekten
Prozess,
Rag@@
Reaktionen
Riesen@@
Risiken
Räume
SS:
Schil@@
Schokol@@
Schuld
Shan@@
Simp@@
Singap@@
Solda@@
Spann@@
Spezi@@
Sprache.
Stil
Stimmen
Stärke
Susan
Symbol@@
Termin@@
Tief@@
Tour@@
Umfeld
Umständen
Unterhaltung
Val@@
Verl@@
Vorauss@@
Vorträge
Wasserstoff
Wees
Weisheit
Welle
Weltraum
Wich@@
Wirtschaft@@
World@@
Wort,
Währ@@
Wäre
Ye@@
Zeg
Zentimeter
Zü@@
aandacht.
aanwe@@
aanwezigheid
aart
aast
aats@@
acht.
achterkant
aden.
afsluiten
agno@@
ah.
alist
alledaagse
allgemeinen
also.
anden,
ansehen.
asteroï@@
astronom@@
banden
beantwor@@
bedekt
bedeuten
beeld@@
behoef@@
bei,
bent@@
beobachtet
bep@@
bes
bescherm@@
besluit@@
bestemm@@
besuchen
bevoor@@
bewusst.
bezahlen
bitte,
blauw@@
blijken
boei@@
boom.
bra
brilli@@
broo@@
buch@@
bureau
by@@
chimpansees
chinesischen
cip@@
ckel@@
communiceren.
constru@@
creatie
dans@@
deeg
deel,
delijk.
delt
denkt:
deu@@
diese,
digitaal
digt.
dir@@
direc@@
dlichen
dode
doel,
donker@@
drijf@@
drukken.
duiken
duurzaam@@
eco@@
eel@@
ei.
einander,
einmal.
eisen
emotionale
entdeckte
entrum
entu@@
epidem@@
equivalent
erre@@
erst,
erten
ese
euren
eurs
existiert.
exponentiële
fall,
famil@@
fik@@
filmpje
firma
fout@@
frau
fundamentale
fus@@
g?
gebildet
gebrochen
gedraa@@
gedragen.
gelang
gelang@@
geluid.
gelö@@
gens,
gered
gerettet
gerät
gesagt.
gesell@@
gesprekken
gestal@@
gesun@@
geval.
gewal@@
gewalt@@
geworfen
gewähl@@
gig
gigen
glob@@
graben
gram
größe
gründete
gy@@
haal
handeln.
hart.
heet@@
herinner@@
herstel@@
hinunter@@
hne
hof
hörten
identific@@
ieel
ihm,
ingenieur@@
insecten
is-@@
islam@@
iteiten.
jam@@
jeman@@
jeugd
jonge@@
kast@@
kat
kering
kommen?
komplizier@@
konserv@@
konstan@@
kungen,
kümmer@@
laatst
lautet
lebendig
leid
leiden,
leidenschaf@@
leiten
les.
liz@@
lopende
luid@@
lukte
machine,
mat
meda@@
meester@@
melk@@
mich:
micro-@@
middelen.
miljar@@
mmt
moess@@
mun@@
mussten,
möglichkeiten
nahezu
nar@@
nationalen
neer.
neten
nimmt.
noem.
noord@@
noorden
nummer@@
nun@@
nämlich,
oefening
ohn@@
okay,
omat@@
omhoog,
onen@@
onische
op?
open,
opgelost
oplei@@
parallel
part@@
paste
pop@@
ppe,
praatje
presiden@@
prie@@
probe@@
probleem@@
problemen,
programme@@
projec@@
raam
radicaal
raus,
registr@@
restauran@@
rufen,
ruh@@
rust@@
rü@@
sammelt
schaffte
schat
schaut,
scherm.
schrijf
schwier@@
selbstverständlich
sele@@
sern
sers
sichtbar
sky
sorgen,
sozialer
spanning
spel,
sport
sport@@
spreche,
springt
sprit@@
straat@@
strateg@@
struktur
städtischen
stände
sz@@
taa@@
tauchen
temp@@
termijn@@
thema's
toename
toll.
trage
transplant@@
traur@@
uitgebreid
un.
unglaub@@
ungss@@
unmöglich.
ursprünglichen
vaa@@
verbindt
verdienen,
verfolgt
vergeet
verhuis@@
verklaren
verko@@
verlieren.
vermoe@@
verrassende
verrückt.
verschwinden
vertrouw@@
veränderte
vingen
vloe@@
voe@@
volgorde
voorstel
vouwen
vrouwen@@
vulkan@@
vull@@
wagens
weiss,
winter
wohlhab@@
woordenboek
ys@@
zahl
zien:
zimmer
zingen
één,
ökonomischen
überein@@
"Mein
"Ne@@
"Und
"Wissen
&amp;@@
1/@@
193@@
2020
7.@@
80,
AT@@
Aar@@
Akadem@@
Aktion
Anderen
Angst,
Anru@@
Aqu@@
Atlantische
Ausrüstung
Baby@@
Bakter@@
Beding@@
Bedrohung
Beinen
Beobacht@@
Berat@@
Blo@@
Blät@@
Bohr@@
Bonob@@
Brau@@
Brü@@
Brüder
Bus
CN@@
Cassini
Centr@@
Chromosom@@
Cit@@
Cli@@
Computer-@@
Dazu
Des@@
Digit@@
Ding@@
Disney
E.@@
Echt@@
Emp@@
Erg
Erste
Evan
Experten
Fabrik@@
Faceboo@@
Felsen
Femin@@
Figur
Fing@@
Frans
Freiwill@@
Frequ@@
Frieden
Gelegen@@
Glauben@@
Globalisierung
Great
Gripp@@
Haar@@
Haiti
Handys
Heutzutage
Holocau@@
Identität
Ieder
Imp@@
Inneren
Investitionen
Jahrhunder@@
Jahrzehnt
Jay
KT:
Kana@@
Kapital@@
Kapitalismus
Kelly
Kenia,
Kennedy
Kol@@
Konsequ@@
Konsequenzen
Kunst.
Körper.
Leiden
Lektion
Leon@@
Liebe.
Länder.
Ländern.
Magazin
Mark@@
Marke
Mars@@
Medic@@
Mexico
Mitglie@@
Mol@@
Männ@@
NM:
Nachhaltig@@
Nicholas
Nick
Oké?
Oor@@
Paar@@
Pakistan,
Pflanzen@@
Phan@@
Pho@@
Poliz@@
Poll@@
Post@@
Presse
Prim@@
Redwoo@@
Regen
Ressourc@@
Richtige
Rose
Rus@@
Rut@@
Röhr@@
SMS
Schnee
Scien@@
Skulpt@@
Sommer@@
Sony
Stahl@@
Star
Stei@@
Steine
Stran@@
Strukt@@
Symbol
Tagen,
Tanz
Technik,
Teleskop@@
Theat@@
Toilet@@
Treib@@
U.S.
Ursprün@@
Verbrau@@
Verder
Verteilung
Verteller:
Veränder@@
Vorder@@
Vorher@@
W:
Wege,
Wein
Welches
Würden
Zon@@
Zuid@@
[
ada@@
ade.
afdeling
aliseren
alität.
alleen.
alom@@
alternatief
ana
ance
anderhalve
anfangen.
annehmen,
anschauen.
ant.
apparaat.
arbeitung
armoede,
atische
ats@@
auslö@@
auteur
ay
bag@@
bank.
bauten
bedenken.
befinden,
begin.
beherr@@
bemü@@
beobachten.
berücksicht@@
berühmten
beschwer@@
beslist
bestaan,
betrekking
bevatten
bewij@@
billiger
braa@@
bs
bub@@
business@@
buurt.
chinesische
computers.
crash@@
daalt
dar,
das?"
data@@
definie@@
den"
design,
dest
dimension@@
disciplin@@
dium
doods@@
door,
drücken,
drückt
duidelijk@@
ebo@@
eens,
ehen
elle,
endsten
englischen
enig@@
enigszins
enor@@
enorm.
eren?
erkann@@
erlebt
ermöglichen
erwarten,
erwi@@
evenveel
fab@@
fiets
film,
fix@@
flit@@
fläch@@
frau@@
fs@@
fte.
gaa@@
geconfronteerd
gedicht
gefol@@
gefährliche
gehe,
gehen?
gekauft
gelijke
gen;
genet@@
gepubliceerd
geraakt.
geschlagen
gevende
gewicht@@
gewohn@@
gewähr@@
git@@
glauben.
globalis@@
go,
gooien
gramm@@
großartig
grü@@
haat
halten?
han,
handig
held
helikop@@
hemel@@
herhaal@@
hersenen,
hete
hier:
hl
huizen,
hul@@
häu@@
ichen
ige.
ight
iker.
illusie
ima@@
immun@@
industrielle
ineens
ingenie@@
inspire@@
institution@@
isteren
ität@@
jeder,
ke-@@
kein@@
keits@@
komen?
konzentrieren.
koop@@
ktions@@
kultur@@
kwaa@@
ky
laag@@
las@@
late
le:
leeft.
leider@@
leken
lengte
lichamen
lied@@
maakte,
machst
medel@@
mee?
meinen,
middelen,
middels
mit.
modi@@
mooi,
mus.
muse@@
mögen.
müs@@
müssten
nahmen.
nannten
nenne.
neu.
noo@@
oef@@
offensichtlich,
oft,
ok.
ok?
olie,
ollen
omgev@@
ondersteun@@
ongeluk
ontwikkelen,
oof
oot,
opgelost.
opin@@
opkomende
oplossen,
opmerkelijk
opnam@@
ordnung
orke@@
overeen
parado@@
perio@@
pflan@@
piek
ple
pokken
pomp@@
potenti@@
praktijk
pret@@
prikkel@@
projiz@@
provis@@
ptisch
puur
radio
rapport
reale
recentelijk
reclame@@
reise
ren,
rett@@
richtet
rust
ruw@@
sauber@@
scherpe
schieten
schild@@
schlug
schlü@@
schrecklich
schrieben
schrif@@
scop@@
selb@@
sex@@
sil@@
sist@@
specif@@
spielt,
spieren
spijt
stag@@
standen,
stern,
stijl
stin@@
straling
stri@@
studeerde
such@@
suggereert
tap@@
tekeningen
tekst
tests
teten
theorieën
tijdschrift
tisch
to.
trek@@
tum
uba
umgeben
ungser@@
universitei@@
unterschied@@
uter
verbessert
verbrauch
vergader@@
vergessen,
vergeten.
vergift@@
verheer@@
verkaufte
vernünft@@
veroorzaken.
versicher@@
verslaa@@
verste@@
verstär@@
verteilt
vijand
vin
voorspellingen
waarnem@@
way
weder@@
wedstrijd
wege
werdet
wij.
willst
wirft
wiskun@@
wohl,
wozu
wundervollen
yer
zaak.
zaam@@
zentralen
zwemmen.
änderte
één-@@
ökonom@@
überall.
übernehmen
überrascht
ützen
"C@@
"Een
"L@@
"Laten
"Okay,
-jährige
4.000
AIDS-@@
AIMS
Acht@@
Algorith@@
Alle@@
Alters@@
Ara@@
Architekt
Aufnahmen
Beeld
Berechnungen
Besit@@
Betrachten
Blatt
Brasilien
Carl
Chip
DNA.
Dach
Dag
Dol@@
Dollar@@
Duitsland
Einstein,
Eltern@@
Entschuldig@@
Erwachsene
Exist@@
Fettleibigkeit
Fläch@@
Fläche
Fotografie
Frau.
Fus@@
Gefangen@@
Geheimnis
Gelu@@
Gold
Göt@@
Histor@@
Hul@@
Immun@@
Informationen,
Inn@@
Insel@@
Keith
Koran
Krimin@@
Luther
Mama
Mandel@@
Marketing
Menschlichkeit
Metaphern
Misch@@
Mischung
Moment.
Monat@@
Motor
Mutter.
Naar
Nachrichten@@
Nano@@
Neur@@
Nic@@
Oce@@
Oder,
Olymp@@
Onder
Orbit
Orche@@
Ou@@
Paar
Panbanisha
Personen,
Pflanzen,
Projekte,
Prozent@@
Rachel
Rel@@
Ret@@
Roots
Roten
S,
Saal
Santa
Schnitt@@
Schreib@@
Schriftstell@@
Shoo@@
Si@@
Sicht@@
Sichtweise
Situationen
Ske@@
Spec@@
Spezies,
Spir@@
Sprache,
Staaten.
Stad@@
Statistik
Stau@@
Sterker
Stewart
Stift@@
Strahl@@
Streben
Stufen
Substan@@
Sum@@
Sun@@
Tat@@
Team@@
Tenslotte
Tha@@
Theorien
Times,
Tode
Vent@@
Verein@@
Verwal@@
Vorig
Wale
Weiter@@
Weltkrieg
Werk@@
Wett@@
Winter@@
Wär@@
Wörterbuch
Zeh@@
Zellen,
Zo,
aanpass@@
aanra@@
abstracte
absur@@
aggress@@
aid@@
alternatieve
altes
ami,
anre@@
are@@
aren.
audit@@
aufgenommen,
baan@@
bedarf
began@@
beglei@@
beken@@
bel,
benutzt,
berekeningen
berer@@
beruh@@
beschermde
beschul@@
beseit@@
besmet@@
besorgt
besteed
betekenis.
beter@@
betrachtet.
betrieben
bezahlen,
biom@@
bizarre
bladeren
blijven,
boel
boven,
brand
britische
business
bücher
carriè@@
cen
chter.
communicatie@@
computer,
conflic@@
controleren
conventionele
cratische
cyclus
dachten:
dans
darauf.
datgene
deling.
destijds
dia@@
diepste
dik
directe
do-@@
dol
draussen
drinnen
dus:
dür@@
economen
effect.
efficiën@@
egal.
ei,
einander@@
eingeladen
einst
ell.
elo@@
ema
ena
ener
energie-@@
enthält
entsteht.
erend.
erf@@
erhielt
erhöht
erschein@@
etz
expeditie
experiment.
explosie
fantas@@
fassen
ffer
folgen.
fonds
fort
foto's,
fotograaf
fout.
fran@@
funktionieren,
fäl@@
gabe
geber
gefahren
gekke
geluk,
geografische
geschaffen,
geschei@@
gesellschaft
gespre@@
gestalten
gestalten,
gesteuer@@
gevallen,
glaubt
gleich,
glücklich.
glückliche
graus@@
grootse
grundlegend
gruppen
ham
hand,
handeln,
helder@@
hele@@
helling
hervorm@@
hielt,
holen,
houten
huwelijk@@
hät@@
ic,
iden.
identit@@
iere@@
iesyste@@
ijsk@@
ik?
ile@@
illus@@
indische
indrukwek@@
iseerde
italien@@
jahr@@
job@@
journalist
journalisten
kamers
klagen
klanten
klat@@
kleur.
kollab@@
kolle@@
komplette
kondig@@
koning
koningin
konzentriert
kopie
kosten,
kreeg.
krist@@
kwamen,
kwest@@
las,
lastige
leef
leerlingen
leid,
letten
leun@@
literat@@
literatuur
maal@@
materiaal,
maximale
medisch
meen
mentar@@
ments
mi
militär@@
miljoen.
mix@@
mmer
mobiel@@
molecu@@
motoren
nationaal
nes
neulich
nieuws,
nik@@
nou,
o's.
omgekeerde
onderneming
onderzee@@
ongelijk@@
ongelooflijk.
ontmoeten
ontro@@
ooh,
oorlogen
opende
optre@@
organisiert
osfeer
overigens
ox@@
padden@@
pag@@
parall@@
paras@@
pijn@@
plek,
primaire
produktion
protest@@
punkte
reicher
reiste
religiösen
riff@@
ringen
robu@@
rommel@@
ruimtes
rup@@
räume
sammeln,
sammlung
schickte
schlau
schlei@@
schläge
schrik@@
schutz
sieben@@
slachtoffers
slecht.
spl@@
ssp@@
stag
stal@@
standaard@@
statt.
ste:
stheorie
stippen
stuifme@@
stuurt
suggest@@
tat.
tekenen.
ters,
tes@@
test,
teur
tiefe
tin
toegevoeg@@
toespraak
tom@@
transformatie
treibt
trächt@@
tuin@@
tägliche
tü@@
uitbrei@@
uitgevoerd
uitnodig@@
uitst@@
uitster@@
ul,
umher@@
unendlich
ung"
uter@@
val,
van:
vanavond
verbrenn@@
verbun@@
verdamm@@
verfüg@@
verhindern,
verklaart
verlassen,
verliest
verliet
verminderen.
verschijnen
versnell@@
verstehe
verwachtingen
ves
vielmals.
vier.
vlag
vliegende
vliegt
vloeistof
vloog
voedsel,
volwassen@@
voort.
vorbei.
waarschijnlijk@@
walvis@@
wapen@@
wart@@
was@@
waterstof
weeg
wert.
wijk@@
winzige
winzigen
wonderlijke
wän@@
ye@@
zaam.
zeker.
zogen.
zoiets.
zugän@@
zunehmen,
zunehmen.
zusätz@@
zweieinhalb
zy@@
Älterwerden
Änderung
Ära
Ökonom@@
Ökosystem
ähr@@
"Hier
"Oké,
'?
-F@@
....
10-@@
21@@
3,5
36
42
97
Ach@@
Angriff
Apart@@
Aristoteles
Ash@@
Asien
Athei@@
Benzin@@
Beru@@
Bir@@
Boe@@
Bruce
Bürgerkrie@@
Chirur@@
Clu@@
Conne@@
Defin@@
Dire@@
Ebenen
Einstellung
Elektronen
Erfolgs@@
Erwartungen
Fantast@@
Fehler@@
Film.
Fried@@
Ganzen
Gedan@@
Gemälde
Geographic
Gericht
Gerät,
Geschichtenerzähl@@
Gesellschaft.
Gesundheit,
Gewe@@
Git@@
HIV/AIDS
Halb@@
Hallo
Häus@@
Höhepunkt
Ill@@
Infra@@
Interessen
Isra@@
Jongen:
Kapitel
Kartoff@@
Kik@@
Kind.
Kno@@
Kommunik@@
Konze@@
Konzer@@
Krähen
Kurve
Kurzem
Körper,
Laufen
Lebensraum
Lego
Lehre
Lü@@
Maak
Mama,
Maschin@@
Maslo@@
McC@@
Methoden
Microso@@
Miner@@
Mio.
Mittelpunkt
Muster.
Männchen
Nik@@
O.
Off@@
Online-@@
Oran@@
Papier@@
Patient
Pha@@
Prot@@
Präsiden@@
Publik@@
Quar@@
Regierung,
Reich
Rekor@@
Ric@@
Richard,
Ron
Rwan@@
Schauspiel@@
Schicht
Schiff
Schl@@
Schon
Shakespeare
Shanghai
Sie:
Somit
Sonnensystem
Spei@@
Spiel,
Staat@@
Sternen
Strö@@
Stämme
Systems
Szene
TD:
Tat,
Tour
Tsunami
Unterschied.
Unterstütz@@
Up@@
Waf@@
Was,
Wellen@@
Wiederauf@@
Wirklich@@
Witz
Woo@@
Zeitungen
Zuid-Afrika
a."
aangetoond
aantonen
aantre@@
aardapp@@
afbeel@@
akel@@
alisiert
aliteit.
all,
allereerste
alternat@@
ama
angeb@@
angew@@
architecten
aten@@
ationele
aufrecht
aus:
ausgebil@@
baan.
bad
bedeck@@
bedrie@@
begrenzt
behe@@
bemerkt,
bemerkte
bene@@
benoe@@
berekenen
beruf@@
beschikbare
beschouwd
besitzt
besonderen
bespreken
bestimmen,
besucht
betrü@@
bevestig@@
bezig.
bieden.
bijdrage
biodiversiteit
bitten
bitten,
botten
branden
breekt
bringe
bräu@@
centi@@
chemicaliën
cin@@
constan@@
consumptie
corruptie
creëerde
daarin
dames
danken
dauern@@
dinosauru@@
discher
dle
docu@@
dokters
dom,
draag
drastisch
dringend
droeg
eBay
eck@@
educ@@
eerde.
efficiënt
ele,
ene@@
erd@@
ere,
erfahr@@
erforscht
erlauben,
ermöglich@@
erstellen,
ervaren.
et?
etc@@
etes
fascinerend
feest@@
fehlt
fluit@@
focussen
forme@@
fotografie
ft."
ft?
fundamen@@
gebaseerde
gedood
gedwongen
geheim@@
gek.
gela@@
gelernt.
generatie.
geniale
geometrische
gerecht
gesammelt
gestap@@
geteilt
gewählt
gezet,
geändert
glat@@
glaubte
glücklich,
gras.
groei.
grond,
grot@@
großartig,
großzü@@
größeres
handel.
hangen.
heutige
hierdoor
hoffen
hoog.
ida@@
ie"
iem
ierten.
iest
ieus
ieven
if
ihr.
ikken.
illen.
intelligenten
interessantes
ionen.
irgendwas
ish
isieren
isieren.
jenigen,
jes@@
jongens,
jongeren
jou@@
kader
karte
kiezen.
kilometers
kker@@
kleinen,
knappe
koenn@@
koffie@@
kommunizieren.
konkurr@@
kozen
krachten.
kreativ
kredie@@
kräfte
kultur
kulturellen
kurzer
kwij@@
lachen.
laten,
laten.
lieben.
long@@
losl@@
ma:
machten,
malari@@
mann,
mannelijke
mathematische
mededo@@
meenemen
meln
menge
mengen
mergen@@
miljard.
misdaad
mist
moei@@
mom@@
monsters
moorden@@
muzikale
mächtige
ness
niemanden
nisse,
nog@@
oeg
oen
ol
ommen
openbar@@
opvat@@
orenen
organisch
orium
overweldig@@
passt.
pion@@
plaf@@
positiv
prakt@@
prototype
punkt.
que@@
quelle
raad@@
radik@@
regelmäßig
regeringen
regiss@@
reib@@
reisen
religiöse
ren.
repliz@@
rice
rif
rige@@
rood@@
rot
rotsen
rotz@@
rucht@@
sap@@
schafften
schitter@@
schreibt
schrijvers
schuil@@
schö@@
sechs@@
seltsam
sent@@
sichere
silic@@
sing@@
sitzen,
sne@@
snel,
snelste
sno@@
sogenannte
speelden
spier@@
spoe@@
spüren
staal
starben
starten,
steken.
ster-@@
stete
stets
stoe@@
stort@@
stoßen
straat.
studenten.
stät@@
stün@@
sul@@
tanden
tekening
tekort
tens
teure
tiefen
tijde
tijdper@@
tjes.
toenemende
tover@@
trafen
tragedie
trainen
transform@@
treden
trekken,
tse
tte,
tuig@@
tv-@@
ty
täglichen
ueber
uitdrukking
uitgenodigd
ul
ums@@
unterscheiden
unterstützt
unver@@
us-@@
va-@@
valt,
veilige
veiligheids@@
vention@@
verbracht
verbringen,
verbruik
vereinfach@@
verkauft.
verloop
verminderen
verstop@@
verwal@@
verwezen@@
vl@@
volstrekt
voorbeelden.
voorstell@@
voorwaarden
vorhanden
waardigheid
warf
wat,
wechseln
westliche
wetenschap@@
wetenschappen
wijk
wissenschaftler
wunderschönen
ya,
z-@@
zeichnete
zeitgenöss@@
zekerheid
zer,
zerstören
zich@@
zinnen
zoet
zoog@@
zoogdieren
zou@@
zwaa@@
zwar,
Ö@@
Üb@@
Überrasch@@
ät,
ökologischen
über,
übertragen
"F@@
-P@@
1,3
12@@
15.000
1950
1990
4.@@
46
AL@@
Acht
Acumen
Adre@@
Antrie@@
Anwäl@@
Astero@@
Ausgaben
Autoren
Azi@@
Ball
Barbar@@
Beck
Bedankt
Benutz@@
Berühr@@
Beschleun@@
Betracht@@
Bewusst@@
Bienen@@
Business
Cambod@@
Cat@@
Cola
Cricket
DNA,
Daarvoor
Dank,
Denn,
Designer,
Det@@
Diskuss@@
Drogen
Durchschnitts@@
ES@@
Eerste
Eier
Emily
Energie.
Entwicklungsländer
Erinner@@
Expedition
Feucht@@
Fit@@
Flug
Flüssigkeit
Fähigkeiten,
Gebieten
Geburtstag
Gefängn@@
Gelegenheit,
Genauso
Geru@@
Geschich@@
Geschichten.
Gespräch@@
Google,
Gru@@
Handlungen
Hawaii
Hektar
Hir@@
Hitze
Holz
Hong@@
Islam@@
Jab@@
Jack@@
Jahrhundert.
Jesus
Joseph
Jupiter
Kenia.
Knopf
Krankenschwe@@
Kreisl@@
Kugel
Lea@@
Lex@@
Links@@
Lob@@
Lot@@
Ländern,
Macht,
Maschine.
McDonald@@
Mexic@@
Mexiko
Moder@@
Moet
NAS@@
Nei@@
Ondanks
Organe
Ori@@
Pandem@@
Plötzlich
Pran@@
Rad@@
Rat
Red
Reichweite
Religion,
Renn@@
Result@@
Ruanda
Russische
Samen@@
Schwimmen
Schä@@
Sho@@
Space
Sta@@
Status
Stern
Stille
Strän@@
Summe
Südafrik@@
TEDGlobal
Tast@@
Team,
Teleskop
Teszler
Theorie,
Thula
Titan@@
Training
Universitäten
Versorgung
Vij@@
Wahrscheinlichkeit,
Wellen
Westerse
Wet@@
Wies@@
Winkel
Woher
Word
Wälder
Wüsten@@
Zwill@@
Zähne
aars,
abgesehen
accep@@
ademhal@@
afbeeldingen
alsmaar
altern@@
altet
anda
anden.
ander,
anderes,
anspru@@
apo@@
arbeite,
archie
arische
armen.
armoede.
att@@
aufbauen
aufen.
ausgesch@@
aussehen,
auto-@@
baan,
bank,
bben
beantwoorden.
beding@@
beeld,
begrü@@
behandeln,
behör@@
belangrijk?
belasting
beperk@@
berekening
berichten.
bestuderen,
betaalt
beteiligt
bewonder@@
bezocht
beïnvloed
bi
bild@@
bildet
bitte.
blat@@
bleibt.
bombar@@
briljant
bten
centra
ch?
chron@@
collega@@
comple@@
concentreren
controleren.
cti@@
dacht@@
daling
de"
deeltjes@@
depressie
der-@@
derde,
detail@@
dete@@
diagnostiz@@
diam@@
dienen.
dilemma
doek
draai@@
drang
drehen.
drücken.
ds.
duc@@
dungen,
eender
eigenaar
eigendom
eingeführt
eingeschrän@@
ene,
engl@@
entdeckt.
enzovoorts.
erfand
erforschen
erforschen,
erforschen.
erhöh@@
ering.
erische
erstellen.
erwachsen@@
erwe@@
erweise,
ete
evolution@@
expert
expor@@
fang
fenom@@
fi
fiet@@
figuren
fijne
flei@@
flug
folgen,
folgen@@
form,
fortgeschrit@@
fortschrit@@
foss@@
fotogra@@
freue
fro@@
führer
gebeten,
gedrag,
geel
gehan@@
gekomen,
gelangt
gelöst.
gemiddel@@
geschafft,
gespeeld
gestuurd
getroffen.
gezin@@
gige
gist@@
groep@@
groot,
großartiger
hand?
handelte
handlung
heer
heh,
hemel,
herhal@@
herrsch@@
hinein.
hoffen,
hoher
hoofd,
hört,
iPhon@@
iert?
igran@@
illegale
impor@@
infiziert
ingssysteem
innovatie.
inspirieren
instelling
internation@@
irgendein
ist."
jaar?
jagen
k."
kalt
kampen
kart@@
karten
katastrop@@
kent.
klap@@
klick@@
knapp
koennen
kolonies
kommuniz@@
konvention@@
kreiert
krimin@@
ksh@@
kunft
kweken
kwijt
langdur@@
langes
legten
leiderschap
leit@@
lese
liefert
lijken,
mani@@
mannen,
massive
massiven
matik
melk
memen
mie@@
mont@@
moslim@@
mussten.
nachhaltige
natürlicher
negen@@
neuesten
nich@@
niet-nulsom@@
niveau,
nukle@@
oefenen
olle
onbekende
onderzocht
onds
ontmoeten.
oos.
opgroei@@
orene
ory
out
overheid@@
papier@@
papieren
parle@@
perfec@@
pijn.
plan.
plei@@
poe@@
positiven
project@@
projekt
quellen
race
raket@@
redden,
reis.
rijden,
rout@@
ruimtevaar@@
rund@@
runter.
sagt.
schatting
schicken,
schlimm@@
selectie
sen:
signific@@
sneeuw
soldaat
speel
staa@@
staar@@
stak
steeds.
stelsel@@
sterren.
stimmen,
stir@@
straf
strengen
struct@@
structuur.
studie@@
suche
symmetrieën
t...
talent
tand@@
tank
team.
tegels
tegenwoor@@
teile,
teilt,
tempo
tevreden
thee
tisch.
tjes,
tlich.
toer@@
tollen
trouwens,
trägt.
träum@@
tue,
ullen
uls
ums,
une
unt@@
untere
unterschie@@
van?
variab@@
variatie
veerde
veget@@
verbindet
verbluffende
verbonden.
verbrau@@
verfolgen.
vergan@@
vergelijkingen
verjaardag
verkiez@@
vermij@@
vernetz@@
veroudering
verscheidene
verschil.
verschwin@@
verstanden.
versteckt
vertik@@
verwandeln.
vlam@@
voorraad
voorstellen,
vorbereit@@
vorsichtig
vorwärts
waarne@@
wahrscheinlich,
wald
wan
warmer
wartet
week,
weil,
werelden
werkte,
wetenschappers,
winkel.
wiskundig
wolken
won
worden."
worden?
wortel@@
zahlt
zeer,
zend
zer.
zerbrech@@
zet.
zetting
zeuge
zugleich
zustellen,
zuverläss@@
zwanzig
zweifel@@
´@@
Ägyp@@
Äthiopien
äll@@
äter
écht
ërs
öpfe
überhau@@
"D@@
"Naja,
'm
-jähr@@
160
300.000
96
AC@@
Afghanistan,
Aimee
Akt
Alb@@
Alex@@
American
Anti@@
Arbeitsplat@@
Armee
Aufstieg
Autos,
Azië.
BI@@
Bangladesh
Batterie
Beitrag
Benjam@@
Bereich,
Bern@@
Besitzer
Betrie@@
Bewegung,
Boden,
Bre@@
Brie@@
C-@@
C:
Cent@@
Christopher
Clar@@
DP:
Daniel
Delfin@@
Diabetes
East
Einmal
Einschrän@@
Empf@@
Engels.
Entwicklungshilfe
Erwärmung
Etwa
Fahrra@@
Fahrrad
Februar
Fet@@
Fle@@
Frü@@
Fur@@
Gefahr@@
Gegenstand
Geheimnisse
Geloof
Generation,
Geräusch
Geschma@@
Geschmack
Gl@@
Grace
Gründer
Hand,
Haup@@
Haus,
Hause.
Henry
High@@
Hoffn@@
Hou
Informat@@
Initi@@
Internation@@
Interview
Iron@@
Israel
Jor@@
Kabel
Karte.
Kay
Kell@@
Kleidung
Kolon@@
Komm
Krat@@
Kredit@@
Lama
Laptop@@
Laut@@
Leiter
Lich@@
Liefer@@
Läch@@
Länge
Lösung.
Mala@@
Meme
Mitgefühl.
Mod@@
Moment@@
Männer,
Nerven@@
Neue
Neut@@
Ohr@@
Ohren
Om@@
Onkel
Orchester
PA
Parlam@@
Plä@@
Pocken
Politik@@
Prostat@@
Provin@@
Prozesse
Pyramide
Quadr@@
Qual@@
Redner
Refer@@
Rein@@
Reisen
Restauran@@
Rohstoff@@
Rum@@
Rwanda
Sammlung
Saturnus
Schaden
Schicksal
Schluss@@
Schlä@@
Schnitt
Schrei@@
Schulen,
Schwanz
Schwarz@@
Schweden
Selb@@
Signal
Simulation
Slo@@
Sonne,
Spezial@@
Spor@@
Säuget@@
Tam@@
Tasche
Thin@@
Trotzdem
Unglaub@@
VN
Vagina
Viertel@@
Vietnam
Virgin
Vorgang
Wahl.
Websei@@
Welten
Werke
Wissenschaft.
Wrig@@
Yorker
Zent@@
Zimmer@@
Zufriedenheit
Zuhause
Zwischen@@
Zähl@@
aal-@@
aanbe@@
aanvallen
achten,
achtergrond.
ado@@
ages
aktuellen
alien.
alistische
allgemein
allgemeine
altijd,
anal@@
anderes.
anderhalf
anfan@@
ange
angeht,
angeneh@@
arbeiter
art,
atmen
atori@@
aufregend
auseinander
ausser@@
beet@@
begon.
belang@@
bels
belt
bern
beschlossen,
beschreiben,
beschäftigen
besitzen,
besteed@@
betaalde
beter,
beton@@
bevest@@
bevölker@@
bilder
blijk@@
boerderij
brachte,
brechen,
brein,
brennen
brot
camp@@
campag@@
centrum.
chao@@
chat@@
cirkels
cricket
cy@@
daaruit
damit.
detaill@@
dimens@@
distributie
dolfijn@@
dreimal
drukken,
dunkel
dynamiek
dä@@
eens@@
eilanden
einzigartig
elektromagnetische
elementaire
enthüll@@
enttäusch@@
enzy@@
erdoor
ergie
erkannte,
erneuer@@
ervan,
erwähnt
erziel@@
esten
euer
export@@
f-@@
fallen,
fasst.
fasziniert
filosofie
fisch
fische
fot@@
fotografiert
frie@@
fris@@
fähigkeit
ge?
gebonden
gefragt:
gefun@@
gehalten.
geht's
gekoppeld
gelben
gelegd.
gelopen
gelt
gemacht?
gemeten
gemäß
genannt,
genau.
gender
geograf@@
geprä@@
gerust
geschreven.
gesund@@
getoond
gever
gevuld
geweldig,
gewer@@
gewissem
gezeigt.
geändert.
goochel@@
grat@@
greift
ha.
halt,
han
heim
hieruit
horizont@@
hs
hum@@
hut
ic.
ichten,
ideale
ids
iere.
ierend
illu@@
ilt
infec@@
inger
inspanningen
instin@@
instit@@
intelligenter
intensiv
interpretatie
interview
inti@@
ir,
jagen.
januari
jou,
kapital@@
kel.
kker.
klaar.
klinisch
klü@@
kompliz@@
kompon@@
kook@@
koos
kopp@@
kreieren,
kritiek
ktiver
kton
künst@@
laden.
lawaa@@
leeg
lehren
leisten.
levens.
levensvormen
logische
ma-@@
maals
magnetisch
malige
massa@@
mathemat@@
matische
matri@@
mensen?
misst
mitfühl@@
monat@@
motivat@@
n."
nadenkt,
natür@@
nauw
nel@@
nennt,
nett
neus@@
niet:
niets,
nommen
noor@@
observat@@
oder,
omstandigheden.
onderwerp.
onthouden
ontwerper@@
othe@@
papier.
paradig@@
perman@@
piano
platform
plattel@@
ploe@@
poet@@
privaten
pum@@
punten.
raar
reed
refle@@
regelmäß@@
rekenen
relativ@@
religiö@@
reserv@@
rijdt
rijker
rook
ruf
schließlich,
schmer@@
schouder
score
sendet
simp@@
sinn
sitzen.
sluiten.
smaak
snap@@
snijden
sof@@
spaz@@
spon@@
sprang
staatliche
staatlichen
standar@@
statistische
stechn@@
stellungen
sterrenstelsel
stet
stimme
stuur
suiker@@
syne@@
t".
teilt.
tempor@@
tent
tentoonstelling
terrorisme
tie.
tiger
tje,
toegankelijk
toegeven
toll@@
tolles
top.
tradition@@
trouw
tv@@
twee.
uitdru@@
uiteindelijke
um-@@
ung."
urt
vaccins
vanzelf
vanzelfsprekend
veld.
ventil@@
verandert,
verbaasd
verbessern,
verdwijn@@
vermut@@
verrassing
versor@@
verstor@@
vervoer@@
verwachten.
verwandelt
verwoest@@
verzon@@
vielerlei
vinger@@
virus.
visu@@
vlogen
volgde
volle@@
voorkeur
voorstel@@
voorwaar@@
vuil@@
vullen.
warme
we:
we?
wechseln.
week.
weist
wezens.
wichtig?
wichtiges
wijd@@
wirkt
wissenschaft
woede
woorden:
zeggen?
zeigten
zeug@@
zeven@@
zien@@
zonne-@@
zonnestelsel
zufrieden
zugeben,
Öff@@
ße,
ähm@@
älteren
ängst@@
über.
überraschend
125
150.000
1995
1998
30.
450
8.@@
Abendessen
Ag@@
Ameisen@@
Angst.
Anhänger
Arab@@
Arkt@@
Armstrong
Armut,
Ausma@@
B-@@
BL:
Batter@@
Berkeley
Bewohner
Bilder.
Blog
Boden.
Brilli@@
Bürgermeister
Californië.
Dadurch
Dan,
Dem
Denkweise
Detail@@
Diagno@@
Dich@@
Disne@@
Durchmesser
Durchschnit@@
Dör@@
E8
Ed
Een@@
Einla@@
Elektriz@@
Endes
Eng@@
England,
Experiment@@
Exxon
Fallschir@@
Fass@@
Feind
Fels@@
Flughaf@@
Folgendes
Führung
Galapagos
Geburts@@
Gebäuden
Gehr@@
Gemeinschaft.
Geometrie
Gerüst
Gesicht@@
Gestaltung
Gewel@@
Glau@@
Gletsch@@
Glück.
Goe@@
Guten
Gü@@
Heimat
Herbie
Hierdoor
Hoffnung.
Hopelijk
Hub@@
Hundert@@
Hä@@
Iedere
Interpretation
Irak,
Isaac
Italiaanse
Jahrhunderts.
Junge,
Kambodsch@@
Kei@@
Kindersterb@@
Kong
Koninkr@@
Kontex@@
Konzentr@@
Konzepte
Kopf,
Kopf-Zahl-@@
Kopie
Kreise
Könnten
Köpfe
Langley
Lap@@
Lebenser@@
Leid
Letztes
Lincoln
Lis@@
Magnet@@
Material,
Medium
Mell@@
Mexico.
Mitgefühl,
Mole@@
Moti@@
Mull@@
Multi@@
Mumba@@
Muskeln
Mut
Männer@@
Müll
Nest@@
Nieuwe
O's
Oke,
Origami
Ot@@
Pacif@@
Pandemie
Party
Physik,
Pion@@
Pix@@
Plastik
Poli@@
Pop@@
Port@@
Präsidenten
Quant@@
Rechner
Regeln,
Republik@@
Resultate
Rettung
Rhyth@@
Rückseite
Schmerzen
Schot@@
Schwarze
Sergio
Seth
Simon
Sindsdien
Skla@@
Slums
Sno@@
Solarenergie
Sonne.
Sorry,
Source
Sprit@@
Stammzellen
Straf@@
Straße,
Stunden,
Stäm@@
Sudhir
Sweeney:
Symmetrien
Syndro@@
Tatsach@@
Ted
Tee
Tradit@@
Transform@@
Transit@@
Twit@@
Umgang
Unfall
Utop@@
Vereinten
Vergeet
Verkehr@@
Vermut@@
Viel
Walter
Werb@@
Werkzeuge,
Wird
Wisst
Z
Zeichn@@
Zeug.
Zukun@@
academische
achteraan
actu@@
aku@@
al:
amat@@
amine
angesehen
angetrieben
angst@@
anon@@
anten@@
apit@@
arbeids@@
aren,
arer
arri@@
assist@@
aufnahmen
auswei@@
authenti@@
auto's,
avont@@
ballon
bedanken
bedeutend
bedreigde
begeister@@
begre@@
beibringen,
beides
belei@@
bellen.
bemerkenswert
benutzt.
bepalen.
beschlossen
beschäftigt,
bestu@@
beträgt
beurs
bewustzijn,
bijdragen
bijvoorbeeld.
binnenkant
blaa@@
blau
blick
blät@@
boerder@@
bos@@
breu@@
bul@@
charakter@@
chemo@@
chips
consequ@@
constructie
consument
context.
continent.
cruciaal
cultur@@
d...
d.@@
danach,
danken,
definitiv
delijk,
demonstratie
der:
diagnose
dichte
dier.
dirig@@
dler
doden@@
doppel@@
draai
drugs@@
dubbel@@
durchzu@@
duren.
edy
eerlijk@@
eerste:
einzig@@
einzige,
einziger
elkaars
emon@@
ennen
entfernten
entscheidende
entsetz@@
entwerfen
entwerfen.
erde,
ermöglichen.
erschafft
erwartet,
es."
euch,
eveneens
ey,
fangen,
fascinerende
fliegt
fluss
fon@@
fragte,
frucht@@
funktionierte
fällen
fördern,
ga,
gaat@@
gang,
gd,
gebeurd,
gebil@@
gedetail@@
geflo@@
gehaald.
geheugen@@
geht's.
gelan@@
geleverd
gemeinschaf@@
geschaffen.
geschehen.
geschick@@
geschrie@@
geseh@@
getrenn@@
gewaltige
gewan@@
gewerkt,
glan@@
gliche
glie@@
global
goeds
gooien.
grafisch
grijpen
groeid
großart@@
großartiges
großem
haftes
halbes
heelal.
heid?
helf@@
hierbij
hinaus,
hingehen
hoek.
honger@@
houd.
hundert@@
hung@@
höch@@
ideeën@@
igem
ihr@@
ille@@
immense
industrie,
ing'
innovatie@@
ino@@
instor@@
int
intellig@@
inzichten
ison
ix,
ja?
japanischen
kar
kens
klasse.
klon@@
kontinuier@@
kooper@@
kop-munt-@@
krebs
ktivität
kurzes
lamp
langsam@@
leeft,
legden
legit@@
legt.
lehnen
leichter@@
leid.
lever
liefst
ließ@@
ligt,
lus
lus@@
läuft,
maakten.
maatschappelijke
mac@@
mache.
magnetische
mensheid.
merken.
mern
migr@@
mlich
moed
monu@@
mooiste
motivatie
musikal@@
mythe
n?"
naar.
nahme,
natie
natuurlijk@@
nen?
nt
nut
ny
obsess@@
ochtend@@
of,
offene
omgevingen
onderkant
onderzoeken.
onvermijdelijk
onzeker@@
ood@@
opbouw
operaties
opgericht
opgewonden
oph@@
oran@@
oranje
oten
oton@@
overvloed
perfekten
piram@@
planetaire
planeten.
post-@@
pper
praat,
prijs.
prof@@
proportion@@
rac@@
ral
rann@@
recept
regels.
religie,
rijst
risic@@
ror@@
roze
ruft
saai
samm@@
scheppen
schi@@
schla@@
schlagen,
schnellen
schot@@
schreibe
schwitz@@
sect@@
sensi@@
sequo@@
setzung
sleutel@@
slu@@
sluit@@
sozi@@
sozial
spree@@
sproblemen
spuiten
stabil@@
sterft
stet@@
steuern
stond,
stream
stud@@
symmetr@@
tags@@
tapij@@
tatsäch@@
terecht.
termin@@
th
theoretische
ti,
tigem
toegepast
truc
truc@@
trug
trägt,
tun."
twintig
uitdaging.
uitgevo@@
uitleg
uitvin@@
uitvinder
uitzondering
univers@@
unterwegs
usi@@
vak
verantwoor@@
vergessen.
verhalen,
verloor
vermei@@
vermen@@
vermin@@
vernicht@@
vernietigen
verplaatsen
verschieden@@
verschill@@
verschuiving
verständ@@
versuchten,
verwacht.
verzor@@
video.
vie@@
vierten
vo
voedings@@
voeren,
voertuigen
voormalige
voornaamste
voorspellen.
voorspelling
vreugde
vriendelijke
vu@@
waar?
waardevolle
wahren
ward
weergave
weet.
wel?
weniger.
wereldwij@@
werkelijkheid.
wezens,
wiel
wier@@
wikkel@@
wilt.
wirken.
wonnen
wärts
yr@@
zagen.
zakken
zan@@
zat,
zeichnen.
zend@@
zentrum
zuhause
zuig@@
zukünftigen
zurecht@@
zwei.
zöger@@
Überlebens@@
ärer
äume,
í@@
übrigens,
ül@@
":
"Wer
"Wow,
'De
-en-@@
100-@@
110
12.000
140
2050
21ste
500.000
;@@
Abstand
Agrar@@
Akti@@
Alber@@
Alex
Allgemein@@
Alternative
Amerikaner,
Anfan@@
Angel@@
Angiogenese
Animation
Ansichten
Anweis@@
Argentin@@
Ast@@
Atlanta
Atomenergie
Auswirkung
BIP
Babys
Bedenken
Bedeutung.
Bereit@@
Bergsteiger
Berichte
Besitz
Besten
Bevölker@@
Blin@@
Bord
Brem@@
CEO
Cameron
Cape
Charaktere
Charlie
Cheet@@
Chinesen
Chirurgen
Choler@@
Chro@@
Corn@@
DV@@
Dame
Dienstleistungen
Dimension
Ding,
Dir@@
Dist@@
Dumm@@
Eer@@
Ehre
Ei@@
Eigenschaf@@
Einfach
Einkauf@@
Einzelnen
Entwicklung.
Enzy@@
Errungen@@
Essen.
Ethik
Euro@@
Europ@@
Fabrik
Fahrzeuge
Faktoren
Famil@@
Fen@@
Filmemach@@
Fischerei@@
Flam@@
Flei@@
Florida
Fotograf
G:
Galois
Gebil@@
Gebäudes
Gedicht
Gemüse
Gerade
Geräusche
Gesundheitssystem
Gesundheitswe@@
Gewal@@
Glo@@
Glücklicherweise
Großmut@@
Größenordnung
Grü@@
Handeln
Hard@@
Herren,
Hund,
IR@@
Ig@@
Individuum
Institution
Interface
Intuition
Iran,
J
Jahrhundert,
Jahrzehnten
Jedoch
Jerry
Juni
Jähr@@
K:
Kannst
Kapaz@@
Katastrophe
Kohlendioxid
Kollis@@
Kommunikation@@
Komponenten
Konkurr@@
Kontak@@
Koordin@@
Kosten@@
Kultur.
Kür@@
LK@@
Las
Last@@
Lay@@
Lehrer,
Lein@@
Lesen
Let
Linsen
Lov@@
Lösung,
Maschine,
Matri@@
Mega@@
Motiv@@
Mul@@
Muster,
Möbel@@
Nachhaltigkeit
Nicht-@@
Nigeria.
Noordpool
Nummer@@
Oberfläche.
Of,
Of@@
Offensichtlich
Operation
Operationen
Opf@@
Organismus
Ozeans
Parasit@@
Pazif@@
Philosophie
Planung
Point
Produktivität
Programm,
Prototypen
Proze@@
Publikum,
Pur@@
Quadrat
Regi@@
Repräsent@@
Republikan@@
Revolution,
Rezept
Rio
Riverside
Roman
Rosling
Rusland
Russland
Schwefelwasserstoff
Schü@@
Sektor
Sekunden,
Situation,
Sobule:
Spur
Spuren
Stam@@
Standar@@
State
Steu@@
Struktur,
Stär@@
Such@@
Sus@@
Tanzan@@
Taschen@@
Tesz@@
Teu@@
Texas
Tie@@
Trotz
Twee@@
Typ,
Umgeb@@
Univer@@
Unternehmer@@
Verenigd
Veränderung.
Video,
Vielfal@@
Vik@@
Vorschlag
Wald@@
Well@@
Weltbevölkerung
Wen@@
Wichtigkeit
Wie@@
Wikipedia,
Wolken
Wä@@
Wände
Zahl@@
Zal
Zuschau@@
Zweden
aanpakken.
aba@@
ach,
ack
actie.
aden@@
adop@@
afrika
ag
agon@@
ak,
also@@
aman@@
anatom@@
antrie@@
architektonische
arden
aris
aufregen@@
aufzubauen,
ausgegeben
ausger@@
ausreichend
ausseh@@
aussieht
aussu@@
autoriteit
bare,
barsten
basierte
bedra@@
beeinflus@@
beginne
beginnend
beker@@
belasting@@
benut@@
benutzte
benzin@@
berühmt
beschreven
beschäftigen,
beslag
bestra@@
betekent,
betrekken
beveilig@@
bevinden.
bewegte
bewunder@@
bezeichnen
beïnvloedt
bijn@@
biologie.
blan@@
blinde
blut@@
boot.
bossen
boterham
brein@@
bronnen.
bruch
bus.
capaciteiten
clever@@
commercieel
conserv@@
continenten
cortex
cultureel
darauf@@
dargestellt
davon@@
delingen
denken@@
dering
dex
diameter
dich,
diesmal
direkte
doctor@@
dolfijnen
dorp,
draaien,
dramat@@
draußen.
dreht.
drinkwa@@
druck,
drugs
drüber
drücke
dul@@
durchaus
durchschnittlich
ed.
eersten
ees
effectieve
effizient
eg
eil,
einschließlich
einsetzen
eis
entwickl@@
entwicklung
entzün@@
erheen
erhöhen
erinner@@
erinnert,
erkannt
erläu@@
ermaßen
ertig@@
erwijs
eröffnet
etabl@@
expon@@
fantast@@
fantastischen
faszinierende
fehler@@
fertig.
festgestellt,
fir@@
frequentie
führte,
gaf.
galer@@
gast@@
geben?
geboden
gebruik,
gekregen.
gelden
geleefd
gelern@@
geloofden
geluids@@
gelukkig.
gemaakte
genen.
gepassioneerd
geplaatst
geschreven,
geschützt
gesneden
gestalt@@
gestartet
gewoon,
gezonder
gigantisch
glücklicher
goden
goud@@
grapp@@
griech@@
grondstoffen
groots
grotten
halverwege
hanol@@
haus.
haven
hebben."
heben,
heiraten
herausforder@@
herstel
high
hinein,
hinunter
hlen@@
hoeken
homo@@
honder@@
hulp.
humor
hunder@@
ianischen
ierungs@@
ieuze
igere
ijker
ing"
ingu@@
injec@@
instinc@@
involv@@
istin
ix
jahr
jo
jonger
jung
juridische
jü@@
kaa@@
kamp@@
kansen.
kapitalisme
keiten.
kes
klas@@
kleinsten
kleur,
km.
kochten
koloni@@
kommerzi@@
komplet@@
komplex
konfront@@
kostengünst@@
kraaien
kreieren
kreu@@
ktor
kungen.
kunstmatig
lad@@
laden,
langfrist@@
lauf
lehrt
leicht,
levensduur
licherweise
liches,
lichkei@@
lig
lijden.
lijkt,
lijn,
loopt,
loopt.
lossen@@
läu@@
manifest@@
mark
mau@@
me-@@
media@@
medium
meinte
meisje@@
menselijkheid
meren,
merkwür@@
mes.
meten,
mikro@@
mikroskop@@
mill@@
ministerie
misschien,
moralisch
myster@@
nachhaltig
nano@@
nature
neem@@
nest@@
netwerk,
nieuw.
nieuwsgierig
nuttige
obje@@
object.
oet@@
ogen@@
olie-@@
omdat,
onderweg
onderwijzen.
oneindige
ongelukkige
onmogelijk.
onmogelijke
onszelf.
ontvangen
onvermij@@
onwet@@
opent
operatie
organisation
ouders,
overleven,
papier,
parach@@
paradigma
partij@@
per,
pers,
persoon@@
pigment@@
planten@@
platen
pleeg@@
pogingen
poster
primit@@
produceert
profess@@
proto@@
pten
punkt,
raakt.
reduzieren
rein.
restlichen
rib@@
rische
roept
ronde
ruimtet@@
runter,
rühr@@
sab@@
schaduw
schafft,
schet@@
schlimmste
schnitte
schone
schoot
schrecklich@@
schreven
schri@@
schrijft
schwerer
schützen
scoop.
sculp@@
seconden.
sh
she@@
sicherstellen,
simulatie
sindsdien
situatie.
so?
sogar,
som
son:
sonde
sprach.
spron@@
ssen?
startten
ste-@@
steil@@
steren
steren.
sterfte@@
sterren,
stichting
stijl.
stirbt
stom@@
stopten
straal@@
streben
stree@@
strips
stroming
studenten,
sturen,
t's?
tas
team@@
telefon@@
terre@@
theorie,
tle
tlich,
tools
tot.
traditioneel
tschätz@@
tsunami
twijfel
töten.
uitgebreide
uitkomst
uitleggen.
uitmaken
uitsterven
uitzonderlijk
umgehen.
umul@@
umweltfreund@@
unken
unmöglich,
ur-@@
ussen
uten,
vacuüm
vader.
vaders
vandaan.
verbracht,
verbrann@@
verbreitete
verdammt
verdwenen.
verhindern
verhoo@@
verkennen.
verkiezingen
verlassen.
verleden,
verleden.
verliebt
verliert
veroorzaken
verplicht
verrückt,
verstand,
versto@@
vertal@@
vervangen.
video's
vind,
ving@@
virtuellen
vlakken
vleugels
vol.
vond,
voor?
voorwer@@
vorauss@@
vorbereitet
vorge@@
vriendelijk
waarde.
waardig@@
waarheid.
wachstum
wagen.
wand.
waterstof@@
wegs
weisen,
weiten
weiterzu@@
werktuigen
wiskundigen
wodurch
wuer@@
wärmer
y?
ya.
zagen,
zee,
zei.
zeichnen,
zeig@@
ziekenhuizen
ziekten,
ziges
zijden
zoom@@
zuru@@
zweif@@
Ü@@
Überraschung
ätz@@
öffnet
überschrei@@
"De@@
"Le@@
%,
'The
.org
12.
15,
1991
2000.
44
50-@@
70.000
73
83
Abu
Alham@@
Alp@@
Alsof
Americ@@
Andy
Angeles.
Angriff@@
Anwendungen
Arbeitsplätze
Archite@@
Argument
Aspe@@
Aussage
Aust@@
Auswahl@@
Auto,
Auto.
Benki
Benzin
Beob@@
Beschreibung
Besonders
Beste@@
Bier
Biom@@
Blijf
Blü@@
Bob@@
Bollywoo@@
Bosn@@
Brazilië
Bronx
Browne
Bücher,
Bücher@@
CP:
Charakter@@
Colli@@
Comedy
DE@@
Danke@@
Dezember
Dichter
Diesen
Dir
Dorf@@
Dynamik
Eames
Eg@@
Einst@@
Elizabet@@
Energ@@
Entwurf
Erstens:
Explor@@
Feld@@
Feuer@@
Flügel
Folgendes:
Founda@@
Francisco.
Frankr@@
Frequenz
Galileo
Gap@@
Gast@@
Gebe@@
Geistes@@
Gen
Genau@@
Geset@@
Gespräche
Getrei@@
Geträn@@
Goo@@
Hawking
Hen@@
Herinner
Herstell@@
Hex@@
Himm@@
Hinweise
Hölle
ID@@
II@@
Impfstoff@@
Independent
Internationale
Jac@@
Jeden
Jezus
Journalisten
Julian
Jupit@@
Kampagne
Klimawandels
Kluft
Korallen@@
Krankheit,
Krankheiten,
Kul@@
Kön@@
Lach@@
Landes.
Lebensmittel
Lehren
Linux
Literat@@
Logo
MA
Macht@@
Maitre@@
Maledi@@
Malte@@
Mam@@
Mechan@@
Milch@@
Milliarden.
Mittagessen
Moham@@
Monate,
Myth@@
Myzel
Mädch@@
Mör@@
NI@@
Na,
Nachfrage
Nadel
Null@@
Obdach@@
Oke@@
PC@@
Park.
Parkinson
Pepsi
Prakt@@
Prinzi@@
Prote@@
Psychologen
R.S.:
Rad
Rande
Realität.
Ressourcen,
Richtung.
Riff@@
Ronald
Rosl@@
Royal
Sag
Schlussfolger@@
School@@
Schulter
Schwi@@
Schätz@@
Sklaverei
Skulptur
Slechts
Sondern
Sous@@
Sprecher:
Square
Stol@@
Studenten,
Städte,
Swa@@
Symphon@@
Systemen
Tauch@@
Te
Teilnehmer
Thema.
Tibet
Tij@@
Tom@@
Tragödie
Trend
Trick
Tropfen
UN-@@
Umstände
Umwelt,
VN-@@
Venter
Verletz@@
Verslaggever:
Vertr@@
Veröffentlich@@
Vin@@
Vorgehens@@
Vorträ@@
Wachstums@@
Wasch@@
Wesen,
Wesent@@
Westen.
Wirtschaft.
Wohltät@@
Wolke
Worüber
Wow,
Zehen
Zor@@
Zul@@
Zurück
aanmoe@@
aber@@
acties
administ@@
afschei@@
ahn@@
alb@@
alleen,
allgegenwär@@
amateur@@
amper
analog@@
anfäll@@
angeme@@
arbeitete,
argument
arr@@
artig
atz
aufhören
authent@@
außergewöhnlichen
avit@@
balanc@@
bast@@
bedenk
bedenken,
bedo@@
bedoelde
begro@@
behalten,
behandeln.
behoor@@
behouden
beibringen
bekeek
bekä@@
belohn@@
bemerkenswer@@
beobachtet,
berichten,
berichtet
bers
berühren
beschikken
beschreiben.
beschrijven.
beschütz@@
besitzen.
bestaan@@
besteht.
bestimmen
bestimmt.
bestimmtes
bestur@@
betekenis@@
betreff@@
bewezen
bewijs@@
bewoners
beëin@@
binden
biologie,
blader@@
blokken
blö@@
bo-@@
boden.
boer
boer@@
bonob@@
branche
brandweer@@
broeikasgassen
brood@@
buitenkant
burgemeester
calorieën
ce"
cellul@@
cept@@
ceter@@
chirurg
chromosom@@
chromosoom
combineren
condit@@
conflicten
conver@@
creatie@@
daarvan,
data,
democrat@@
democratische
demografische
demonstreert
dergelijke.
dienst.
dinosaurussen
dio
do,
dou@@
draht@@
dran.
draußen,
drie.
driedimensionale
dumm
dwars
e;
eenheid
eeuwig
efficiënter
ego@@
eieren
einzel@@
endheid
enge
enzovoort,
er"
erem
erlaub@@
erleben.
erneu@@
erstaunlich,
erstellen
esthet@@
evolut@@
expositie
ey.
fabrieken
falsch,
fange
fascin@@
femin@@
festen
filantrop@@
filmp@@
finanziellen
folgendes:
font@@
fordert
formule
frontale
fän@@
fördern.
gangs@@
geboorte@@
gebunden
gecontro@@
gedeelde
gedruck@@
geef@@
geheu@@
geladen
geladen.
gelaufen
gelen@@
gelukkiger
gemisch@@
genu@@
gered@@
gerett@@
geringen
gers.
gespann@@
gestel@@
geur
gevallen.
gevonden,
gewaltigen
gewann
gewij@@
gezicht.
gif
glaubte,
gleich.
globaler
grie@@
groepen,
gs.
gul@@
halte.
handelt.
haren
hassen
heben.
hem:
hielp
hierbei
hierfür
hinaus.
hob
honderdduizenden
horlo@@
hotel
houden?
hut@@
iatur@@
ici,
ie."
iel,
ieën,
ijd
ijen,
illusies
imet@@
immers
implic@@
imu@@
individuelle
ingenieur
innen.
input
installatie
interact@@
interagieren
is...
isieren,
isierte
istischer
itische
izi@@
jederzeit
jenem
job
jullie@@
kandi@@
kantoor.
keerde
keln
keren,
ki
kiezen,
kilomet@@
klimmers
komme,
kore@@
koude
kring
ktiv.
kurs
kümmert
landbouw.
langen.
langere
laptop@@
leeftijd.
leich@@
letters
lijf
lui
luister
läss@@
maak,
maand,
maatschappijen
machten.
makkelijk.
mannet@@
maschin@@
massa's
mathematischen
mich@@
mier@@
missen
mität
moeilijkste
mug@@
mus,
naal@@
neben@@
neugier@@
neugierig
neut@@
nog.
normen
ochtends
offenbar@@
offic@@
okay.
olla@@
oloog,
onderlinge
ondernemer
onderwater@@
onderzoeker
ontmoeting
oor.
opath@@
opdra@@
opgezet
oppervlak,
oppervlak.
optimis@@
overleden
paran@@
parti@@
pein@@
pen."
per.
perceptie
peren
piloot
plaa@@
poë@@
pracht@@
prestatie
priv@@
privé-@@
productiviteit
pure
raakt,
raakten
raken.
ram@@
rationeel
raus.
re-@@
reageren.
realistisch
region@@
reichen.
rein,
rest@@
resul@@
richt.
richtig,
richtingen
robuu@@
route
sah.
saubere
schalen
scheu@@
schlussendlich
schneiden
schrecklichen
sco@@
sd
seins
sind:
sj@@
skrank@@
slachtoffer
slagen,
snaam
snapt
spelletjes
spieler
splan@@
sprach@@
sprache
spu@@
stamcellen
stappen.
stecken.
steed@@
steekt
stel.
stellige
sterben@@
stijgt
studiert
stuk,
stöß@@
stütz@@
sweise
system,
systematische
systeme
talenten
tanden@@
taus@@
teams
telefo@@
tex.
theoret@@
tief.
tijdig
tisch,
tliches
toegan@@
toelaten
traag
traf,
trag,
transpor@@
tuin.
tumor
twij@@
uh,
uitbarst@@
uitein@@
uitgestorven
uitzien
uitziet.
uitzonderlijke
umbi@@
unabhängige
unden.
ungen@@
ungsan@@
universit@@
unmittel@@
unsicht@@
ure@@
vakantie
varen
veert
vention
verab@@
verbazingwekkend.
verbetering
verbindet.
verdeeld
verdiepingen
vergleich@@
verhogen
vermel@@
vermijden
verover@@
verrück@@
verrückte
verschu@@
verslagen
vertegenwoordig@@
verticale
vertrouwen.
verwerken
verwirr@@
vijf,
vloeibaar
voldoen@@
vooroor@@
voortplant@@
voorzichtig
vro@@
waarna
wachsenden
wandern
wanhop@@
warten.
wat.
website.
weef@@
weißt,
wensen
werden:
wereldbevolking
werknemer@@
wesentlichen
wich
wie:
wiederholt
wieviele
wilt,
win-@@
wiskunde,
witz
woo@@
wort
wunderbar.
xen
ype
zaad@@
zacht@@
zal@@
zeitig
zeldzame
zept@@
zerr@@
zesde
zukünftige
zunehmen@@
zusam@@
Äthiop@@
Ök@@
Öl,
Übergang
ähnlich.
ät.
äub@@
é,
öl
üben
überleben,
”@@
"...
"Hij
"Is
"Ist
"J@@
"Na
"Nein@@
"R@@
0ern
100%
1970
1997
2%
20%
2007,
30%
30-@@
3:
49
Afrikaans
Aktivitäten
Allen
Allerdings
Andrew
Anfang.
Anlage
Annahme,
Ant@@
Antarc@@
Anth@@
Armut@@
Artenvielfalt
Arz@@
Asteroiden
Astrolab@@
Aufgabe,
Augenblick,
Ausnahme
Austausch
Autorität
Azië,
Bakterium
Balance
Barmherzigkeit
Bedenk
Behalve
Behör@@
Bele@@
Bemü@@
Berechnung
Berkel@@
Beruf
Betrieb@@
Bli@@
Brennstoff@@
Brück@@
Buches
Bush-@@
CI@@
Charlie@@
Chemo@@
Chicago.
Chinezen
Congre@@
Cy@@
Denn@@
Dirig@@
Dubai
Dunkelheit
Eli@@
Em@@
Engage@@
Eth@@
Ethiopië
Fakt
Familien,
Favor@@
Feuerwehr@@
Flö@@
Forschung,
Fr@@
Frakt@@
Frankrijk
Frauen@@
Freund,
Frö@@
Fußab@@
Füßen
Gebo@@
Gebäu@@
Genome
Geräusch@@
Geschenk
Geschwindigkeit,
Gipf@@
Glaube
Gleichungen
Gletscher
Goog@@
Gras@@
Gravitation
Grund.
Hast
Haupts@@
Helemaal
Herkunft
Hinweis
Hoo@@
Horizon@@
Howar@@
Höhle
Hügel
Illus@@
Intel
Intellig@@
Interviewer:
Inti@@
Is@@
Kass@@
Katze
Kindersit@@
Klimawandel.
Klu@@
Kolonien
Kolum@@
Kommunikations@@
Konserv@@
Kontra@@
Krankheit.
Kurs
Labor,
Laborator@@
Landschaften
Leidenschaft.
Lenn@@
Mannes
Markt.
Max@@
Medizin.
Midden-Oosten
Mission@@
Modell.
Montana
Motivation
Mumbai
Nadel@@
Natalie
Negroponte
Newton@@
Nigeriaanse
Ohr
Okap@@
Ordnung,
Organisation,
Orten,
Osteu@@
Performan@@
Pfle@@
Pian@@
Pittsburgh
Poin@@
Prec@@
President
Prinzip@@
Prop@@
Prozess.
RNA
Radio
Reden
Reichtum
Relativ@@
Ren@@
Renaiss@@
Ross
Russen
Schaltkrei@@
Schla@@
Sechs
Sedi@@
Sei
Sekunde.
Sincla@@
Stell@@
Sternen@@
Stift
Stimme,
Stop@@
Stuhl@@
Tamiflu
Tausenden
Terrorismus
Text
Thema,
Therapie
Trinkwa@@
UV-@@
Up
Ursache
Vat@@
Veranstalt@@
Verbraucher
Vergangenheit,
Vergnü@@
Verrück@@
Versi@@
Versionen
Verständn@@
WHO
Wall
Weis@@
Weltkrie@@
Weltraum@@
Wetter@@
Widerspruch
Williams
Winden@@
Wu@@
Wäl@@
Y-@@
a's,
aanwijzingen
absicht@@
accepteren
activisten
adre@@
afwe@@
agenda
ai
akadem@@
alisieren
angenommen
angepasst
ant,
antibiotica
antrei@@
antwoorden.
anwenden
architectuur.
are,
arit@@
armen,
artikelen
ash@@
assozi@@
au.
auch@@
aufeinander
baarheid.
bacter@@
balle@@
barkeit,
bedeutete,
bedrag
bedroh@@
begann.
beigebracht
belangen
belangstelling
beleef@@
belich@@
beloning
benutze
bereikt,
beschrijving
besonder@@
besserer
bestehen.
bestimmt,
betalen,
betrifft
bevrijden
beweging,
bewegungen
bewältig@@
beziehen
bezoeken
bijdra@@
billig
bislang
bist,
bomen,
brieven
bruik@@
brüche
buizen
cade@@
caf@@
centrum,
cep@@
chert
cke.
ckte
clo@@
colle@@
commun@@
competit@@
conservatie@@
crat@@
ctie,
da's
daaro@@
dabei.
dacht.
dazu.
deelnemers
deerde
denlang
dichtheid
diezelfde
dimensionalen
do.
documenten
dox@@
dren@@
dringen.
druk,
druppel
durchs
dustr@@
eigentlichen
eilen
eins.
einzigartige
elast@@
elingen
empir@@
ends
entstehen.
entwor@@
erde.
ergän@@
erungen
et:
eventuell
evolutionair
excus@@
falen
februari
fess@@
fijn
films,
financieel
flat@@
folg@@
foute
fragment
fälle,
fördern
füg@@
fünf,
gas.
gebieden,
gecreëerd.
geest,
gefallen,
gehalten,
geholpen
gehouden.
gelbe
geld@@
geleerd.
geleit@@
geln.
geloven.
gelukk@@
generatie,
genieten
genocide
genutz@@
georganiseerde
gerelateerd
gerichtet
geräte
gesammel@@
geschafft.
geschakel@@
gesellschaf@@
gesellschaftlichen
gewebe
gewezen
gezegd:
gezogen,
gezondheidszorg.
geïnspire@@
geïso@@
glaubten,
glän@@
gooit
graden.
grap@@
grootschalige
h"
halb,
hall
handlungen
harder
hartslag
hat:
hectare
here
heren
heren,
herkennen.
herunter
herzu@@
hinzu.
hium
hlt
hopel@@
huids@@
huwelijk
hybr@@
ient@@
ieren:
ierer
ift
ig?
igkeiten,
ihn.
ika,
ikel
imen
individueel
industriellen
ineen@@
informat@@
ings,
inspirerende
interactieve
interagieren.
interessanterweise
irdische
isatie
ister
iveau
kalk@@
karakter
keinerlei
keines
kent@@
klant
klimaatverandering,
knie@@
komische
kommun@@
koopt
koraal
kostenlose
krachtiger
kreeg,
kreis
kriegen.
krijgen?
kristall@@
kurzfrist@@
können."
kühlt
laboratori@@
ladingen
lage,
landelijke
langetermijn@@
lans
lebte,
leeftijd,
leeg@@
lem@@
letzen
liedjes
liest
ling,
ling@@
loszu@@
luister@@
länder
maan,
maand.
maanden,
maatschappij,
mail@@
manag@@
martel@@
me?
meisje,
meister
melkweg@@
methaan
mijzelf
mm.
model,
moster@@
mpfen
nachzudenken
nahme.
names
natürlich.
nauwkeur@@
nes,
nietwaar?
nieuw@@
nive@@
nodig?
olly
omringd
ondersteuning
ondertussen
onderzoeken,
onein@@
ontdekken,
onthult
ontwierp
oog,
oom@@
opbren@@
opbrengst
opnemen
oppervlakken
opwindende
opzetten
overheid,
overleef@@
pagina.
pale@@
pandemie
passende
patro@@
pfen.
pi@@
piramide
pjes
plaatste
ploo@@
podium.
portret
prachtig.
primitieve
privat@@
pro-@@
probieren
problem
produkt
proo@@
rational
realiseert
recess@@
rechtop
reduc@@
regelmatig
regenw@@
regionale
reizen.
rennen.
resist@@
resultaat.
riffen
robot.
ror
rou@@
ry@@
sach@@
satellie@@
satz,
schaam@@
schaar@@
schedel
schein
scheint.
schickten
schießen
schijnen
schlecht,
schließend
schou@@
schuf
schuldigen
schwierigen
schwieriger
schwim@@
schwäch@@
schützen,
scè@@
ser.
sicheren
slaap
slachtoff@@
slag.
slechter
sop@@
speelt.
springen,
sprongen
sse.
stads@@
stapte
steigt.
stelen
stereot@@
sterren@@
sterven,
sthesie
stit@@
stoel@@
stok
stoten
strahl
straße
sub-@@
subsi@@
sucht.
taal,
taken
tamelijk
tatsächlichen
teer
tegenstrij@@
teils
telefoont@@
tellen.
temperatur
ten"
tens,
teuren
tick@@
tiel@@
top,
transit@@
trifft,
täusch@@
uiteindelijk,
uitgestre@@
uitspraak
unden,
unglückl@@
ungskraft
universiteit.
unterstützen,
unvorstell@@
urr@@
us:
vang@@
vangel@@
vaten
vel.
veld@@
vels
ven?
vent
verboden
verbreitet.
verde@@
verdelen
verdient.
verdiep@@
vergadering
verho@@
verkehr
verkoopt
verniel@@
vers.
verschilt
verschwunden
versorg@@
versorgen.
verursacht.
vervel@@
verwachting
verwe@@
verzamelt
vide@@
vielen,
vierkant
vig@@
ving,
vinger
vissen.
voorbeel@@
voorbereid
voorgesteld
voorzien@@
voran@@
vroeg@@
waargenomen
wagen,
waterstofsulfide
wed@@
weegt
wegzu@@
weken.
weltwei@@
wen.
weniger,
werkers
wiegt
wijs@@
winzig
wirk@@
wissenschaften
wolk
wunderbares
würdest
zeer.
zeichnung
zes@@
zett@@
zichtbare
ziehe
zieht.
zieren
zijn;
zinnige
zomer@@
zutiefst
zwaarte@@
Öffent@@
Öl.
ße.
ändert,
äss@@
örder@@
"Hall@@
,7
00-@@
11,
15.
18.
185@@
1945
1994
20e
5.@@
7.000
AIDS,
Ab
Aber@@
Abschnitt
Absichten
Afg@@
Aller@@
Alzhei@@
Anführ@@
Ang@@
Anreize
Antibiotika
Anzieh@@
Apollo
Atome
Auffassung
Aufgabe.
Ausgabe
Ausschnitt
Austral@@
Aven@@
BM@@
BMW
Bedeutung,
Belast@@
Beleucht@@
Belohnung
Bescheid
Bess@@
Bett@@
Bhut@@
Blind@@
Block
Bombe
Botswan@@
Bou@@
Boy@@
Bush.
Böse
Büchern
Bür@@
Center.
Charak@@
Chu@@
Cla@@
Comp@@
Copern@@
DL:
DN@@
David,
Degenen
Dia@@
Dienste
Dreie@@
Eart@@
Einblick
Einzelne
Empath@@
Ende,
Energien
Enkel@@
Entdeck@@
Entwicklung@@
Entwicklungsl@@
Erfüll@@
Eur@@
Everest.
Exped@@
Fak@@
Faszin@@
Fett
Fiktion
Flüss@@
Francisco,
Fru@@
Frühl@@
Fäll@@
Gam@@
Gand@@
Gang@@
Gebäude.
Gehirns.
Geiste@@
Gemü@@
Geräu@@
Geschwi@@
Getreide
Gewinner
Glühbirne
Goede
Graham
Graph@@
Grippe@@
Groen@@
Grönland
Gär@@
Hadron
Hallo.
Hawai@@
Haï@@
Hemisphäre
Hillis
Hou@@
Inspir@@
Isl@@
Israë@@
Istan@@
It@@
JC:
JP@@
Januar
Jenn@@
Joodse
Just@@
Kamel
Karik@@
Kauf@@
Keiner
Kepl@@
Klar@@
Knie
Koh@@
Koka@@
Kombin@@
Komment@@
Kongress@@
Kosovo@@
Krebs,
Kreislauf
Kru@@
Kurz@@
Kühe
Künstler,
L.A.
Landkarte
Latijns-@@
Lebewesen,
Len@@
Line@@
Live-@@
Liz@@
Mai
Mais@@
Mathemat@@
Mathematik.
Maus@@
Meil@@
Mens@@
Mich
Mikro-@@
Milch
Mittel,
Mobile
Namen.
Nep@@
Neva@@
Nicole:
Niñ@@
Noord
O.@@
Objekten
Oel@@
Oh.
Okto@@
Oprah
Oxford,
Paradig@@
Parall@@
Parti@@
Pferd
Pflanze
Philosoph@@
Phoen@@
Polar@@
Rechts
Reich@@
Reihenfolge
Replik@@
Reson@@
Robot@@
Roboter,
Roboter@@
Rory
SARS
Sao
Schie@@
Schir@@
Schriftsteller
Schwarzschildradi@@
Schwing@@
Schülern
Seattle
Sekunden.
Sieben
Sinne@@
Sitz
Societ@@
Software,
Sohn,
Sonde
Sonder@@
Sper@@
Sport
Sri
Start@@
Steek
Stoff
Strat@@
Strateg@@
Studien@@
Studium
Teams
Teenager
Teil.
Tempo
Tenness@@
Tragö@@
Transist@@
Transpor@@
Treibstoff
Trocken@@
Trouwens,
Tät@@
Tü@@
U-Boo@@
UV@@
Umgebung.
Umstän@@
Umwand@@
Universums.
Unternehmen.
Unterschied,
Vagina-@@
Venezuela
Verfahren
Verhalten.
Verkehr
Verlangen
Verletzungen
Vernun@@
Verzerr@@
Virginia
Visu@@
Visualisierung
Vorhersagen
Wag@@
Wahrschein@@
Wand@@
Wetter
Wikipedi@@
Wirkl@@
Woche,
Woche.
Wurzel@@
Wän@@
Zehn
Zet
Ziel.
Zweitens,
Zykl@@
[onduidelijk@@
aanleiding
aard.
able
accept@@
afschu@@
ala,
aliseren.
alog
ambten@@
amer
amerikan@@
amerikanischer
anen,
anf@@
angenehme
angiogenese
anschließend
ansonsten
anzusehen,
ario
artig.
assen
ativer
atle@@
ato@@
aufgenommen.
aufregende
aufzubauen.
außerorden@@
barung
bass@@
be-@@
beantwoorden
beauf@@
bed@@
bedienen
bedrijven,
beein@@
befrei@@
befür@@
behalten.
beher@@
bekam,
belev@@
bellen,
bemann@@
bemerkte,
benen.
benzine
benötigen,
beobach@@
berg,
beroer@@
beschre@@
besuchte
bezahlen.
bezeichnet
bijkom@@
bioluminesc@@
bloot@@
bommen
bood@@
brandstoffen
breit@@
brengt,
brin@@
bzw.
cen@@
chinesisches
cijfers.
competitie
concep@@
conclus@@
concurrentie
cool,
ction@@
cultuur@@
dadelijk
daher,
dam@@
dan:
dankbaar
dansen
darf,
darf.
darstellen.
dauer
deed@@
deert
definiert
dell@@
dem.
denken?
di,
diabe@@
dial@@
diepgaande
diese.
digkeit
discipl@@
diversiteit.
document
doorgaan.
dreht,
drijvende
dringt
drukte
duiken.
durchschnittlichen
duurzaamheid
e-mail
ehe@@
ehle
ehr
einde.
elekt@@
ellende
elte
emiss@@
emissies
enie
ens:
ensei@@
entes
entfernen
enthalten
entre@@
entsprechend
entwerfen,
ep
erien
erschaff@@
erschwing@@
erstre@@
erweitern
erzählt.
es-@@
esc@@
eten@@
etze
existiert,
expedit@@
fanden,
fasst,
fau@@
federale
figuur
formen,
forscher
fossilen
ften.
förmige
fügt
füh@@
fühlt,
g."
ganz,
geben@@
gebeurd?
gebeuren?
gebruik.
gebruiken?
gedeeltelijk
gedragen,
geduldig
geform@@
geführt,
gegaan,
gegessen
gegevens,
gegoo@@
gelassen.
gelaten.
gelijken@@
geloven,
geluk@@
gemaa@@
gemeinnütz@@
genaamd.
gende@@
generell
geo-@@
georganiseerd
geraken
geschah,
geschie@@
getau@@
getest
getö@@
gewöhnt
gezamenlijke
geë@@
glamour
glich,
glich.
golfl@@
graaf
grafische
greep
gron@@
gründen
gucken
gänzlich
göt@@
gül@@
harten
hedr@@
heisst,
herken@@
hersenhelft
hielpen
hielt.
holte
hoofdstuk
hori@@
hys@@
hysi@@
icus,
idee@@
ierend,
illende
iller
implicaties
ines
ingrediënten
inheemse
inno@@
instituut
intellectu@@
interie@@
investiert
irrig@@
ist;
istisch,
istisch.
iteiten,
iteits@@
iter
ito@@
itra
its
j
jedoch,
jenes
jetzt?
joenen
jongere
jährlich
kankers
kelijk,
kennis,
kerels
kijkje
kilometer.
kker
klaa@@
kleding
kleineren
klug
knap@@
knoo@@
kognitive
kognitiven
komm
koordin@@
kranten
ktischen
ktoren,
kts
kut@@
kwaad.
kwaliteiten
kwee@@
kwetsbaar
könne
künstlich
laat.
lach@@
lam
langweilig
lapt@@
laptops
leben?
leiten.
len.
lernten
levensonder@@
ley,
libellen
liberalen
licham@@
liebe,
liefern
ließ.
ling.
logarit@@
logica
logo
loser
loses
losigkeit
lui@@
maaltijd
maatschapp@@
mannetjes
marketing
markten.
matig
mechanismen
med
medewer@@
media.
membr@@
mentaal
microscoop
midden.
mig@@
millenn@@
mittel,
mobieltje
moor@@
muss@@
muur.
mächtig
mäßig
naam.
naam@@
nachhalt@@
nadenken.
nahen
nahm,
nann@@
negatie@@
nege@@
nehmen?
ness@@
nette
neue,
neur@@
niets@@
nieuwe,
nigeri@@
nog?
noodzaak
noten
nucleair
nutzt,
offensicht@@
ok
omvat@@
onderliggende
onderwijzen
one.
ongelof@@
ongeloof@@
ongelu@@
ontbij@@
onvoorstel@@
ooit,
op:
opbouw@@
opbouwen
optie
origam@@
ou.
overlevings@@
packt
park.
partn@@
past,
pati@@
patron@@
pen?
pertoire
pessim@@
pir@@
planeten,
plezier@@
plikationen
po.
politisch
pool
poot
position@@
praatte
preis
probieren.
produceren,
productief
productieve
progress@@
psycholog@@
py@@
quar@@
raden
radikal
ran
recep@@
redet
reduzieren,
referentie@@
relevant.
respon@@
revolutie.
richtte
ro
rock@@
ruhig
sa
saa@@
schaal,
schadu@@
schau
schepen
schild
schizofr@@
schlicht
schmei@@
schmel@@
schnitt
schre@@
schud@@
schwache
schwachen
seren
shir@@
sicherer
sief
situatie,
ske@@
skelet@@
sleep@@
slin@@
sloeg
sluiten,
snap
spaghettis@@
speelgoed
spiel.
sprake
spring@@
spü@@
staal@@
staand
stalen
stechnolog@@
steckt,
stelijke
stil.
stimmt,
strikt
strukt@@
städte
stände,
ständige
stö@@
succes,
suggereren
sver@@
swert
symmetrisch
sympt@@
technologieën,
tekton@@
tel,
tex
theoretisch
thet@@
tief,
tise
toeval
tol@@
toten
tour@@
tradit@@
trein
tret@@
troepen
tromm@@
trotz@@
tunnel
tz
tätig
ueber@@
uitbreiden
uiten@@
uitgang@@
uitgaven
uitgeven
uitwisseling
ump@@
ungehe@@
ungsweise
unsichtbaren
vagina
valt.
vast,
veranderden
veranst@@
verbluff@@
vergroot
verkehr@@
verkracht@@
verkrijgen
verkör@@
verlangt
verlä@@
vermitteln,
verplaatsen.
verrückten
verscheur@@
verschwunden.
verstand.
verständlich
vertrok
verzameld
vezels
vige
vind.
virale
vlag@@
voelt,
voetaf@@
voetafdruk
volgende.
volume
volutie
voorheen
vooruitgang.
vorn
vraagt:
vreemd.
vriend,
vrijwillig@@
vrijwilligers
vuur.
waarden,
waarschijn@@
wachen
wachsende
wahr,
welijk
welvaar@@
wenden,
werksters
wers
werte
wetenschapp@@
wichtiger,
wijken
winz@@
wirr@@
wirtschaftlich
woestijn.
wonder
wonderen
woord,
word@@
woud
wus@@
wuß@@
wäre@@
zaamheid
zahlen.
zeh@@
zeilen
zelforganis@@
zender
ziekte,
zif@@
zo:
zonde
zte
zz
zählt
Überwach@@
Überzeug@@
ßt,
ähnlicher
ähnliches
ätze.
én
éé@@
één@@
ënten
öffnete
übt
♫@@
"Ach,
&amp;
)
-cijferig
100,
2020.
25%
25.000
60.
60er
Ach,
Ahnung.
Air
Alask@@
Alter@@
Antikör@@
Atmosphäre.
Auflösung
Authenti@@
Babies
Baby,
Bahn@@
Ballon
Bangladesch
Basis@@
Begegn@@
Behaupt@@
Belangr@@
Bestechung
Besuch
Betrachtung
Bevölkerung,
Bewegungs@@
Bindung
Blase
Blö@@
Boeddh@@
Branche
Brief@@
Broo@@
CER@@
Californ@@
Californi@@
Chance,
City,
Colom@@
Columbia
Creative
Dallas
Dampf@@
Darwins
Dasselbe
Datenbank
Dave
Deine
Delphin@@
Desa@@
Deut@@
Dialog
Differ@@
Dik@@
Duits@@
Duitse
E-Mail
Ebene,
Ebene.
Echtzeit
Einricht@@
Entfern@@
Entscheidung@@
Entwur@@
Erdbe@@
Erlaubnis
Erzählung
Etwas,
Fernseher
Früher
Fund
Fußball@@
Fün@@
GPHIN
Ganz@@
Gebur@@
Gebü@@
Geht
Genet@@
Genu@@
Gesicht,
Gesichts@@
Glu@@
Gods
Groenland
Großbritann@@
Gut@@
HIV,
Haie
Hallo,
Halluzinationen
Harmonie
Haïti
Hef@@
Herausforderungen,
High-@@
Hilfe.
Hospit@@
I.@@
IBM
IDEO
IP@@
Inder
Informationen.
Ingenieuren
Ins@@
Interessante
Interviews
Jacqueline
Journal
Kanal
Katrina
Klavier
Konsum
Kosm@@
Kosovo
Kosten.
Krab@@
Krankenhaus@@
Kreativ@@
Krieg,
Krieg.
Ky@@
Kyoto
Küche
Labor@@
Lawrence
Lebensqualität
Luft,
Mach
Mais
Mal.
Mandela
Maße
Maßstä@@
Mechanismus
Meiner
Methan
Mexik@@
Minder@@
Mittleren
Mode
Moskitos
Mun@@
Nahrungssu@@
Nest
Normaal
Objekte,
Oeganda
Ol@@
Organisationen,
Orten.
Ozean.
Papier,
Patienten,
Pause
Pennsylvania
Philanthropie
Photosh@@
Pip@@
Pit@@
Pittsburg@@
Pog@@
Politik.
Portug@@
Poster
Potenzi@@
Praxis
Probanden
Quer@@
Recyc@@
Regul@@
Rennen
Rit@@
Ruan@@
Rätsel@@
Schalt@@
Schizophr@@
Schlei@@
Schnit@@
Schwestern
Schädel
Schätzung
Selbstmor@@
Selektion
Shangha@@
Shar@@
Signale
Silik@@
Song
Sprung
Stamm
Standards
Start
Strahlung
Strategien
Strei@@
Stri@@
Stunden.
Sy@@
Symptome
Synä@@
Systeme,
Süda@@
T,
Tausend
Techniken
Tegelijkertijd
Tendenz
Teufel
Textil@@
Theor@@
Tien
Tiger
Time
Times.
Tin@@
Tinten@@
Trin@@
Tussen
Typen,
UF@@
UN
Ugan@@
Uiteraard
Umlauf@@
Unterricht
Urheber@@
Urkn@@
V.@@
Venezuel@@
Verbesserung
Verhalten,
Versicher@@
Verzweiflung
Vorstell@@
Vortrags
Vrouwen
Vul@@
Wahlen
Wechsel
Weibchen
Weißen
Wereldoorlo@@
Wichtigste
Wirklich
Wissens@@
Wochen.
Wohin
Yeah,
Yu@@
Zeel@@
Zeichnungen
Zeitpunkt,
Zeitspanne
Ziet
Zin@@
Zol@@
Zoveel
Zuschauer
Zweiten
aannemen
aars.
abe
aby@@
acheln
achtet
ade,
afhan@@
afhankelijk@@
afzonderlijke
ahme
akken
akoe@@
aktiver
akzeptieren
alisierten
alistisch
allemaal@@
alstublie@@
alter.
alumin@@
ambass@@
anders?
anderthalb
anfing
angel@@
angele@@
ani@@
anzugehen.
apparatuur
appel
architectonische
aro@@
artiges
ativ.
aufnehmen
ausgelö@@
ausgewählt
außergewöhnlich
ax@@
baby,
bauer
baum
beacht@@
beantworten
bedeckt
bedeutungs@@
beer@@
begin,
beginnt.
behaupte
behörde
beide.
belicht@@
ben."
ben:
benutzten
beperken
berecht@@
bereiten.
berühmte
bescheiden
beschermen,
beschikking
beten
betroffen
beurt
bevolking,
beweegt,
beweren
bewo@@
bewustzijn.
bezor@@
bildung,
bilität
billige
binn@@
biologischer
bioloog
bios@@
bladerda@@
blazen.
boeken@@
bombe
boodschappen
boog
bouwen@@
braak
breit
bruikbaar
burger
can@@
chemisch
chlor@@
choler@@
chte@@
cks@@
cla@@
cockta@@
collectief
communiceren,
condities
correc@@
correct
ct.
cursu@@
cus@@
daag@@
daklo@@
dbaar
decken
deckt
definieren
definiëren
democratie.
demon@@
den...
dend.
dergelijk@@
dia's
dialoog
dicht.
diegene
dimensies.
distri@@
diversiteit,
dom.
don
draden
drijft
drin.
dronken
drucks@@
dumme
dunne
durchführen
e",
e'
ebr@@
economieën
eds
eer.
eet@@
eeuwen@@
ehmen
eigenlijk.
eindeloos
einhalb
einsetzen,
eite
eld.
elektr@@
ener@@
entdeckte,
entgegen
entle@@
erfahren.
ergeben
erkannt,
erkennt,
ern?
ernst.
erwähnen,
erzählten
et."
ethiek
etwa@@
ex-@@
faal@@
face,
fair
falls@@
fasste
fenomeen.
figur@@
financi@@
finanziert
fließt
flink
flächen
foo@@
formele
forschung
fossielen
fotografeerde
fotografer@@
fractie
französ@@
fröh@@
fst
fysi@@
füllt
gaf,
gas,
gden
gecomplic@@
gefallen.
gefan@@
gefei@@
geformt
gefäll@@
gegenwärtigen
gehenden
geholfen
gekocht
gelief@@
gelukkig,
gen"
genaue
genese,
genoot
geprobe@@
geringer
geschenk
geschwindig@@
geschäft
geslo@@
gestie@@
gestopt
gestorben.
gesünder
gevaarlijk.
geven?
gevestig@@
gewid@@
gezegd.
geïm@@
geïnfecteerd
gift@@
gno@@
goud
gres
grondslag
grootvader
groter.
gäbe,
haft,
hafter
handelt,
haut
hebben:
hechten
heeft?
heimlich
heit?
heiß
hemel.
hersenhel@@
het!
historischen
hongersn@@
hoofden
hoop,
houd,
houtsk@@
huishoudens
huiswerk
hulpel@@
hängen.
icken
ics,
ieren."
iesen,
ieu
iga@@
igh@@
igram@@
ihm.
ij:
ijs,
iland
illen,
imm
inje@@
intens
intense
interessieren,
intrinsie@@
intuïtie
itaire
ition
iv,
jekt
jüngeren
kaart,
kanalen
kauft
kennt.
ki@@
kiest
kindertijd
king.
kippen
klang
klav@@
kleinkinderen
kleuter@@
klimaat.
klopt,
klopt.
knall@@
knie
koei@@
koken
komisch
kompliziert.
komst.
kontrolliert
konzep@@
koraalriffen
kost.
krachten,
kregen.
kriegt
kräft@@
kuss@@
kwaliteits@@
kö@@
künstlichen
lachten
lagen,
landschappen
langsam.
lauter
leden.
leisten,
leistungs@@
lens
lezers
lichaam@@
liches.
lied.
liggen,
link
linker
log
luisteren,
ly
machen?"
machines.
machtige
mal:
mals,
manipu@@
market@@
marketing@@
massa-@@
materie,
materiële
meester
melo@@
meng@@
menselijk@@
mente.
mere
merkt,
met,
metalen
mijl
minus
mittel.
mochte
mogelijkheden,
more
morgen.
muizen
mysterieuze
mäch@@
männer
méér
naald
nadenken,
nahm.
neurologische
niet-nul-som@@
nieuwste
nodige
noemt.
nul.
obsta@@
offensichtliche
oftmals
okay?
oké?
ole
ologe,
omateri@@
omheen
omzet
ondersteunen
onderzoe@@
ongelukkig
onnen,
ontwierpen
opeen@@
opgelei@@
opgeleid
oplos@@
opper@@
opzij
ordnet
orgaan
organiseren.
organisierten
orkest
os-@@
over?
overtuigingen
overvloe@@
partijen
patiënt.
philosoph@@
physikal@@
plaatst.
plaatsten
planen
plat
plaus
plätze
praatten
prik@@
producenten
programmeer@@
projecten,
prostitu@@
qua
recherch@@
redelijke
regionen
reibt,
reibt.
reine
reist
resolutie
resultaten.
richtet.
riep
riesiger
rotte
rüber
scans
scenario
schaften.
schappen
schij@@
schilderijen
schitterende
schreeu@@
schreib@@
scien@@
selten@@
sigkeit
sinn.
slimmer
sloe@@
sneller.
sober@@
software@@
solda@@
sparen,
sparen.
spielten
spraak
spunt
ssysteem
sta.
staat:
startete
statistisch
steden,
stellen?
stellte,
stemm@@
sterk.
stern.
sters,
stevig
stitu@@
stoß
straal
strategieën
stron@@
structur@@
strä@@
studeren
stukken,
stukken.
stück.
suchten
sult@@
tabel
talent@@
tausend@@
te"
technie@@
teert.
tegenovergestelde
tekens
ter:
theat@@
theor@@
tis@@
tnisse
toen,
toestel
toevoegen.
toilet@@
toller
toneel
traurig
trieben
trouwen
tte
ty@@
tät@@
uiteraard,
uiterst
uitkomen.
uitvindingen
uitvoeren
ullen.
ultur@@
umgekehr@@
ums.
umwandel@@
unausweich@@
unda@@
unmittelbar
unser@@
ure,
vaardigheden.
varian@@
vee
vele,
ver:
verabschie@@
verandering,
verbeteringen
verblei@@
verbreiten,
verda@@
verdeut@@
verdrie@@
veren,
veren.
vergewaltigt
vergroten.
verhaf@@
verhou@@
verkauften
verkeers@@
verlag@@
verliezen.
verließ
verloo@@
vermeiden
vermitteln.
verschick@@
verschrik@@
verslag
versn@@
vertaal@@
vertrauen
verwand@@
verwandeln
vig
vis,
viss@@
vissen,
voeg
voert
volgt.
vonden.
voorbij.
voorsteden
voorwerp
voorzicht@@
voorziening
voranzu@@
vorherrsch@@
vorherzu@@
waaro@@
wand,
websit@@
website,
wees@@
weibliche
welvaart
wesenheit
wetenschapper,
wicht@@
wier
winden
winst@@
wiskunde.
wonen,
woord@@
woraus
wächst.
ybo@@
yp
yste@@
zacht
zeital@@
zelle
zent
zieht,
zig.
zijn?"
zinnig
zintuigen
zogen,
zonnepan@@
zu-@@
zustan@@
zustand
zutriff@@
zuvor.
zwak
zó
Än@@
Ölkatastrop@@
äume.
äumen
äußeren
ökonomische
übermittel@@
übers
überzeugt
’.
"En
"Ga
"Heb
"Hé,
"Ihr
"Kom
"OK,
"Wanneer
"Weißt
'het
'n
1/3
1500
28@@
38
40,
52
56
60,
6000
650
9/11
=
AIDS.
Act
Afrika's
Algorithmen
Allereerst
Amat@@
Amerikanischen
Andro@@
Anfang,
Angestellten
Anlei@@
Annahmen
Architec@@
Auftrag
Aufzeichnungen
Ausbruch
Ausrüst@@
Autonom@@
Bakterien,
Banken
Barry
Bedro@@
Bedürfnis
Beispiele.
Berlin
Bestandteil
Besu@@
Betracht
Betrü@@
Bezahl@@
Bhutan
Bildhau@@
Biolumines@@
Biomasse
Black@@
Brazil@@
Brooklyn
Buchstab@@
Business@@
Canada
Caro@@
Carolyn
Central
Chips
Chirurg
City.
Clo@@
Coca-@@
Coun@@
Cru@@
Deep
Dennett
Depression
Derde
Dienstleist@@
Digital
Disc@@
Dokumentar@@
Dom@@
Dorf,
Eigenschaften,
Einrichtungen
Engels,
Entwicklung,
Entwicklungsländer@@
Erdbeben
Erkennt@@
Ethanol
Europä@@
Experiment,
Explosi@@
Farbe,
Farmer
Fau@@
Fehler,
Fello@@
Flag@@
Flagge
Flaschen
Formel
Franzo@@
Funda@@
Galerie
Geburt@@
Gehör@@
Gell-@@
Gemeinsam@@
Gene,
Genen
Get@@
Gewä@@
Google-@@
Google.
Gravit@@
Gren@@
Guardi@@
H.
Happy
Hart@@
Haust@@
Held
Hilfsmittel
Himmel@@
Hipp@@
Hoffentlich
Honder@@
Humor
Hät@@
Höhlen
Hüfte
Hühnchen
IS@@
Ih@@
Initiative
Intuit@@
J.
Jahrhunderts,
Joshu@@
Journal@@
Kalk@@
Kanzi
Kara@@
Karo-@@
Karte,
Katrin@@
Kau@@
Keen@@
Keram@@
Kilomet@@
Klar,
Kohlen@@
Kohlendiox@@
Kongo
Kriege
Kwa@@
Käl@@
Künste
L-@@
Laat@@
Lateinamer@@
Later
Len
Lieder
Lok@@
London,
MRI
MacCread@@
Mad@@
Magie
Maria
Marken@@
Maß
Medit@@
Meg@@
Meinung,
Meister@@
Metap@@
Methoden,
Michig@@
Mig@@
Millionen.
Mitte.
Mittel-@@
Mobil@@
Moe@@
Motorra@@
Nachricht,
Nacht,
Namibia
Nancy
Neuseel@@
Nicht-Nullsummen-@@
Nigeria,
Nooit
Nordpol@@
Normal@@
Oft
Ok@@
One
Oreg@@
Origam@@
Pakistan.
Palest@@
Palä@@
Pant@@
Pas
Pazifik
Perspekti@@
Pflanzen.
Pilot
Plast@@
Pläne
Plätze
Politik,
Princeton
Projec@@
Projekt@@
Prototyp@@
Pub@@
Publikum.
Punkten
RISD
Rate
Raumes
Reagan
Rech@@
Ressour@@
Rett@@
Reze@@
Rezess@@
Richter
Roboter.
Rolle.
Ruhe
Rä@@
Rö@@
Röntgen-@@
Sam
Schlacht@@
Schlimm@@
Schre@@
Schreiben
Schri@@
Seel@@
Sehn@@
Send@@
Sicherheit,
Situation.
Skelettmuskeln
Software@@
Sorge
Sovjet-Un@@
Sowjetunion
Spinn@@
Später
Stanfor@@
Stelle,
Stere@@
Stim@@
Stoffwechsel@@
Streit
Stränge
Stunts
Stur@@
T-Shir@@
TV-@@
Tanzania
Taus@@
Technik.
Teenag@@
Telkens
Teppich@@
Toch?
Toe@@
Toilette
Tok@@
Toyota
Transport@@
Treibhaus@@
Treibhausgase
Tän@@
U-@@
Ultra@@
Umgebung,
Unfälle
Verb@@
Verbin@@
Verhäl@@
Videospiel@@
Voraussetz@@
Vorstellungs@@
Vortrag.
Waaro@@
Washington.
Wechsel@@
Wechselwir@@
Welt?
Werten
Weten
Window@@
Wirbel@@
Wollen
Wortes
Wärme
Yves
Zeitra@@
Zes
Zufall
Zusammenhan@@
Zweifel
aad
aangenomen
aangezien
aardbev@@
aardbeving
abilität
achterhalen
ado
affin@@
afspraa@@
agra@@
akkoord
alisme.
alles?
altijd.
amin
angesichts
angespro@@
anischer
anpass@@
ans.
ansteck@@
anthrop@@
antilich@@
antwortet@@
apparat@@
arbeid
arbeiteten,
ari
arien
artistieke
atie?
aufbauen,
aufhören,
aufmerksam
aufregend.
ausgestat@@
ausgewähl@@
austau@@
avonds
bakker@@
bbel@@
bedachten
bedingungen
bedreigd
beeldhou@@
beest@@
behoe@@
behoren
behoud
beispiel@@
bekam.
bekannter
bekend,
bekommen@@
beleid.
belu@@
benen,
bereikte
berührt.
besa@@
bestand@@
bestehen,
betreiben
betrokkenheid
betrouwbare
bewaren.
bezahlt.
beziehen,
bezogen
beïnvloeden.
bieten,
bildung.
bomen.
bood
bord.
breder
broe@@
buig@@
bury
chro@@
chronische
cifer@@
cocaïne
collectie
comment@@
conceptu@@
conclu@@
conser@@
controver@@
corrup@@
coöper@@
crick@@
crisis,
crit@@
curve
da?
daad.
daalde
daarop@@
daartoe
daarvan.
dach@@
dam
damals,
dauernd
december
deeltjes,
deines
deloze
den".
denkers
depressief
dertig
dete.
diagram
dies:
diox@@
dir,
djes
dodelijk
draait,
dremp@@
dreven
droge
dromen.
drucken
dunkl@@
edt
eerden.
eerdere
eet,
egoï@@
eigentlich,
eindig@@
einfachste
einzigartigen
eiwitten
electr@@
elektriciteit.
elektrisch
elektronen
ellem
ellos
ement
emotionalen
ende.
ender,
ender.
endete
enzen,
erfin@@
erhit@@
ern:
erneut
erop.
erschien
ersetzen
erstaunlich.
erweitern.
erwähnt,
etho@@
europäischen
evolutionären
fabrik@@
fachen
falten
familiel@@
farb@@
faszinierend.
fden
feer,
fein@@
fer,
festzu@@
fettleib@@
ffer@@
filmen
findet.
flogen
flow
fläche.
forts@@
französische
frei.
ften,
fuhr@@
funda@@
fung@@
fähr@@
fütter@@
gaand
gau@@
gebauten
gebla@@
gebouw,
gebouwen,
gebre@@
gedaan@@
gedeeld
gedei@@
gedrag@@
gedreht
geesten
geflogen
gefährlich,
gehende
gekleurde
gelangen
geleitet
gelukkige
gemeenschappelijk
gen...
genannten
geneigd
genheit
genießen
genutzt.
geologische
geplant
gerade@@
gers,
geschichte.
geschieden@@
geschla@@
geschätz@@
gesehen?
gesl@@
gesloten.
gespei@@
gesteld,
getu@@
gevlo@@
gewelddadige
gewicht.
gewoonlijk
gewünsch@@
gezwungen
geï@@
geïdentific@@
geöff@@
gist
gister@@
gleichen.
gloeil@@
glü@@
gnis
god
goedgekeur@@
gon@@
gosla@@
gran@@
grondstoffen@@
großen,
größer.
gründen,
gründen.
gs,
gänger@@
günstig
haaien
habt.
han.
handelen.
haus,
heilig@@
heldere
herbei@@
hergestellt.
herinnering
hernieuwbare
hervor,
hoogst
hoorde,
höchst
idi@@
ies?
ietwat
igste,
ijn.
ill,
inci@@
individuellen
ingwek@@
inkomsten
innovaties
intervie@@
invas@@
investieren.
inwoners
inzoom@@
ips
iseren,
it-@@
ition,
itt@@
itter@@
ius
jet
jul@@
kaart@@
kaarten.
kakkerla@@
kali@@
kanaal
kappen
ke:
keken,
kennis@@
kerel.
kingen
kje.
klappen
kleiner,
kleiner.
klettern
klikken
koel@@
koken.
koll
komplexes
kone
kop.
korrig@@
krab@@
krabbel@@
kreef@@
kreisl@@
krijg@@
kritischen
können:
kündig@@
laag.
lab.
lage.
landete
laub@@
lei
leicht.
lem
lernte,
letter
levens,
leveren.
liebe@@
ließen,
links.
lol
ls
maan.
malig
mama
mande
maschine.
massale
mater@@
medewerkers
medizin@@
meneer
mentaire
merendeel
mes,
mest@@
microben
microscop@@
missie.
modellen,
modern
modern@@
molekul@@
motorische
munt
muslimischen
muzie@@
muzikant
mysteriö@@
naam,
nachdenkt,
nachgedacht
nadruk
nahme@@
nano-@@
natürliches
nauwkeurig
neer,
nenne,
nes.
netwerk@@
niedrig
nochmals
nooit.
noordelijk
noordelijke
notie
nur?
nutzten
nör@@
o?
objecten.
octopus
oe,
omgek@@
ondersteunen.
ontbrekende
ontdekkings@@
onthullen
ontstaan,
ontste@@
ontwerp,
onzichtbaar
ooi
opgebouwd
opger@@
oplo@@
oppervlakte@@
oprecht
ora
ore,
osexu@@
otisch
overeenkom@@
overheen
pad.
paren
passie.
passt,
patri@@
patronen.
pend
periode.
permanent
pfel
pflanzen,
phen
plaat
platte
plekken.
pog@@
pompen
pool.
populair@@
post
pox@@
ppm
praktischen
primiti@@
probleme
producten.
produziert,
prozess@@
publiceren
quet@@
rang
realiseerden
reddings@@
rel
rijk,
risch@@
risik@@
rivieren
rollen.
romantie@@
rond,
ropa@@
rotten
rufe
ruikt
ruimtelijke
sagte.
samenbrengen
samenkomen
samenlev@@
schaft@@
schalten.
schetsen
schir@@
schnellsten
schr@@
schte
schuss
schwarz
schwierig.
schär@@
schüchter@@
sechs,
seltsamen
senti@@
sh-@@
shmallow
sich?
sla
slaan,
slij@@
snoe@@
sons
spa@@
speelt,
spezifischen
spirituellen
spontaan
spoort
spreek@@
sprogram@@
sst,
staten,
stattfindet.
stel,
stelle,
sters.
strategische
sträger
stunt@@
sym@@
synthe@@
talen.
tas@@
tauschen
team,
tech@@
tei
teilten
telefoon,
temperaturen
tendieren
theater
theit
then
tie,
tiende
tieners
tijden.
toe?
tot,
touw
trachten
tranen
transistor@@
trend@@
trifft.
trü@@
u?
uitbreiding
uitput@@
uitwissel@@
una
ungewöhnliche
ungsfähigkeit
universiteiten
unterrichtet
upda@@
vaat@@
varkens
vas@@
veld,
ventionen
ver-@@
verbrand@@
verbrei@@
verdeel@@
verdor@@
verdra@@
verdrei@@
verf
verheirat@@
verklaren.
vermogen.
vermoord
vermute,
vernietigen.
vernietiging
verondersteld
verpflich@@
verschwinden.
versle@@
vertegenwoordigt
verteilt.
verur@@
verwandeln,
verwandelt.
videogames
vieren
vieren.
ville,
ving.
virtuelle
voering
volk@@
voltoo@@
volwassenen.
voor:
voorbeeld,
voorbije
vorgestellt
vorherseh@@
vormde
vraagstuk
vulkanische
waardering
waarschuwing
wachte
waffen
wahrhaftig
wass@@
weefsel@@
wehr@@
wekkend
welt,
wenigsten
wes@@
weswegen
wetgeving
wettbewer@@
wezen.
wielen
wilde,
willkür@@
wissenschaftlicher
wo,
worstel@@
wütend
zaam,
zeigte,
zelfstandig
zen?
zerstören,
zigen
zij,
zodanig
zones
zoon,
zorgvuldig
zucht
zueinander
zug,
zunehmen
zurückkehren
°C
Ärm@@
Ästhet@@
Übersetz@@
Übertragung
Übrigens,
Übung
ältere
äne
änger@@
ärm@@
äst@@
ästhet@@
äume
ënt
öffnen,
ök@@
öst@@
öß@@
überall,
überraschende
überwie@@
überzeugen.
üblichen
ümm@@
ütze
"Alle
"Eine
"O
'70
.:
.]
.com,
1,2
10%
192@@
1983
31
35.000
40.
70%
76
78
Aan@@
Abenteuer
Alaska
Ameisen,
Amerikaan
Analogie
Ann
Antworten.
Apfel
Ass@@
Auff@@
Aufmerksam@@
August
Band@@
Bangal@@
Batterien
Bauch@@
Bausteine
Bergen
Bestandteile
Bildungssystem
Bin
Binnen@@
Blasen
Blei@@
Blit@@
Bond
Brille
Buckel@@
Buen@@
Buff@@
C.A.:
CO2-Emissionen
Canade@@
Cany@@
Celsius
Cen@@
Chaos
Chef
Chine@@
Clay
Coll@@
Conserv@@
Coo@@
Corexit
Cyber@@
Daarbij
Dankeschön.
Datens@@
Davi@@
Davon
Dawkins
Denemar@@
Dichte
Direktor
Distanz
Dorf.
Dunkel@@
Däne@@
Ear@@
Eben@@
Echte
Ek@@
Erdober@@
Eröff@@
Evolution.
Experte
Ez@@
Eén:
Facebook
Farm
Filme,
Fis@@
Fleisch@@
Flex@@
Flickr
Fliegen
Flugzeug@@
Frans@@
Früherkenn@@
Fälle,
Galaxien,
Geben
Gefä@@
Geistes
Griff@@
Großbritannien,
Größe.
Guatem@@
Güter
HIV.
Haa@@
Had
Halluzin@@
Handlung
Handy@@
Hat@@
Hausaufgaben
Hausmeisters
Herbst
Heu@@
Himalaya
Hunde@@
Hut
Häl@@
Höhe,
Hören
Hülle
Hütte
IQ
Imperi@@
Impfstoffe
Inse@@
Intelle@@
Interessantes
Irgendwie
Jar@@
Jeep
Journalist
Jugend
Jungs,
Kalorien
Kart@@
Katzen
Khmer
Kindersitze
Klim@@
Klinik
Kort
Koso@@
Kran@@
Kreation@@
Kurse
Kyo@@
Küchen@@
LE@@
Labor.
Laser@@
Law@@
Lehrerin
Lehrern
Les@@
Letzten
Leven
Lichter
Life@@
Liter
Live
Lon@@
Luister
Län@@
Madaga@@
Magazine
Mahatma
Manage@@
Management
Manhattan,
Mary
Maschinen,
Master
Meeresboden
Meeress@@
Meile
Melkweg
Micha@@
Million@@
Minute.
Motor@@
Mögliche
Mön@@
Nachts
Nenn@@
Netze
Ni@@
Nicht-Nullsummen@@
Niet?
Nieuw
Nobelprei@@
Nobelprijs
Nog@@
Nollywoo@@
Nordo@@
Nordpol
Noten
Nullsummen@@
Nährstoffe
Oberfläch@@
Oder?
Oegan@@
Ok?
Oke.
Oliver
Ordn@@
Organismen,
Os
Paradigma
Param@@
Parks
Partik@@
Pink
Pir@@
Planet@@
Platten
Pro-@@
Probe
Prostitu@@
Protein
Quantenmechan@@
Raketen@@
Rechte@@
Region.
Reis
Restaurants
Richar@@
Richtig.
Richtung,
Ritu@@
Rock
Roger
Rollen
Rome
Rover@@
Rät@@
Sally
Schall@@
Schauspieler
Schild
Schildkrö@@
Schnei@@
Schuh@@
Schwerkraft
Schwimm@@
Schüler@@
September,
Skiz@@
Soll
Sorte
Stal@@
Statt
Staub
Steckdo@@
Stefan
Steinen
Stil@@
Still@@
Stimul@@
Stipen@@
Stirling@@
Stunt@@
Stü@@
Super
Synchron@@
Säugetiere
Südamer@@
T-shir@@
Tages,
Taten
Tayl@@
Technologie@@
Ted@@
Theo@@
Therap@@
Therapien
Tränen
Tunnel
U-Bahn
Umweltsch@@
Uni@@
Union
Unternehmens@@
Untersuchungen
Ur-@@
Ursachen
Ut@@
Veget@@
Verbrenn@@
Vergangen@@
Vergewaltig@@
Vertrau@@
Vic@@
Victori@@
Vortra@@
Waffe
Websit@@
Weiß
Wel
Wereldoorlog
Werkzeug,
White
Wieviele
Wikipedia.
Wilson
Wirk@@
Wochen,
Wom@@
Worte,
Zahlen,
Zau@@
Zelt
Zoiets
Zusammens@@
Zwitser@@
aanbod
aandeel
aandoen@@
aangen@@
aanste@@
aanzienlijk
abgeschnit@@
achten.
achteruit
achteruit@@
ademen.
afstand.
afstanden
afvragen:
agent
ain@@
aks
ali
allo@@
analyser@@
anfän@@
angefangen.
animatie
annehmen
annen
anony@@
anpassen
antwoordde
antwortete:
anz,
aparte
aren@@
arium
assem@@
astro@@
astronomische
at-@@
atie-@@
ations
aufen
augu@@
ausgedrück@@
ausgesprochen
ausrei@@
baat
ballen
batterij
bedankt
bedenkt
beeindruckende
beeinflu@@
beeinflussen.
beenden
beetje.
befassen.
begrei@@
begrijp@@
behandelen,
behandelt.
beinhalt@@
belangrijker,
beloo@@
benötigt,
benötigt.
beschaving.
besmet
besmettings@@
bestrijden
bevindt.
bewirken
bezieht
bezoeken.
bidden
bijeen
bijzonder@@
binaire
binden.
biomassa
bla
bleib@@
bodem.
brauch
breken,
broeikas@@
buddh@@
cart@@
chauff@@
chef@@
chen?
chines@@
chung
cia
clusters
cognit@@
collega
com
comman@@
complexiteit.
concentratie
concepten
conciër@@
conom@@
consist@@
consumenten@@
contex@@
continu@@
creativiteit.
cties.
curricul@@
cyber@@
daarna,
darin.
dauern,
ddha@@
decor@@
deelde
deeltjes.
deld
denk:
denkl@@
ders@@
deuren
dget@@
dheid,
dict@@
digd.
dikke
dilem@@
dinosau@@
doden,
doorbraak
doorgaans
doorsnee
dra
drat@@
drau@@
drauf@@
dreiging
dringen,
durchgeführt.
dürf@@
e's
e?"
eb@@
ecologie
ecosystemen
ed,
een-@@
eenvoudiger
ef,
eflyer's
eindig
eingehen
einzelnes
en,"
encyclopedie
endgül@@
ense
enthousiasme
entscheidend
enzovoort
eraf
erinnern.
erinnerte
erischen
erkläre
erklärte
erleb@@
ermor@@
ernähren.
erscheint,
erschreck@@
ersten,
erwartet.
erzählte,
eurem
experts
fa
fabric@@
fahrt
fantastisch,
feest
feestje
fet@@
filantropie
flessen
flex@@
folgender@@
fondsen
fortzu@@
froh
functioneren
fundamentalen
gaan."
garage
ge"
gebaar
gebeurden
gebleven
gebogen
gebrei@@
gedood.
gefascineerd
gefährlich.
gefüllt
gegen,
geh
gehandicap@@
gelangt,
geloo@@
geluid,
gemeenschapp@@
gemerkt
geneeskunde.
gens@@
geo@@
gepublic@@
geradezu
gereg@@
geren,
gesam@@
geschlossen
gesproken.
gestorven
gesün@@
getrie@@
getrieben
geweld,
gewenste
geïntegreerd
geïnteress@@
giftig
glas@@
glaubten
gleichzei@@
goedkop@@
gooi
graben,
grad
grafie
grappen
grappige
gratis.
grijze
grootmoeder
grund.
grundsätz@@
größtenteils
h?
half@@
handl@@
harmonie
heiligen
heißt.
helden@@
herinneren,
herzlichen
het:
hilfe@@
hilfrei@@
hlen,
hne.
holt
holz
honderd@@
hoogtepunt
horizontale
hre.
hunderten
hydrother@@
höf@@
hüt@@
i's
ial
ieme
iern
ifik@@
igend.
ijkheid
iketten
ikte
industri@@
ingen?
intelligentie.
interagieren,
internationaal
introductie
intussen
intuïtief
is;
istiek
itie
jaarlijks
jammer
jarenlang
jeden,
jedenfalls
jedes@@
jij@@
jünger
k"
kaartje
kampag@@
kandida@@
kann?
kannten
karretje
katten
kehr
king,
klasse,
kleed
klimmen.
koeien
koelk@@
konzentrierte
krank.
kreieren.
kritisch
kt!
ktische
kämpfen.
könntest
lachen,
lag,
langs@@
lant@@
laser
le"
le?
legend@@
leistung
leiten,
len,
lernt,
les-@@
letterlijk,
leute
ley.
liberale
licher,
liebt
liebte
liefern.
liep,
ließ,
lineaire
lingen
logi@@
logie
lokal
lood@@
lot@@
loter@@
lukt
lustig,
luxe
m."
makkelijke
man?
masse
materie.
mechanis@@
mechanische
medicijnen,
meetkunde
mei
meint
mensen:
mest
metabolisme
metaforen
metter@@
meubil@@
mieren@@
mijl@@
miner@@
minu@@
mma
mobiel
moderner
moet.
mogelijk,
mond.
mos@@
multi-@@
mysterie
nacht@@
nap
nau@@
negativen
nehm@@
nein@@
netz
niedrig@@
niemandem
nieu@@
nochmal,
nodigen
non@@
normaler
notwen@@
ocht@@
oed@@
offenbar
onbekend
ontdekt,
ontdekt.
onth@@
ontmoet,
ontwerpers,
ophil@@
oplossing,
oplossingen.
oprichter
opzet
or-@@
otel@@
our.
our@@
overeenkomsten
oze@@
pac@@
packen
paramet@@
path@@
patroon@@
perat@@
physikalischen
plaatst
plank
plekken,
plezierige
podi@@
politischer
porte@@
posities
pre-@@
prevent@@
privi@@
probe
product.
productie.
produziert.
programma,
promis@@
prostaat@@
prozess
präzis@@
psychiat@@
psychologen
psychologie,
quadr@@
quant@@
quer
raam@@
ral@@
ramen
rampen
randen
rap@@
ras@@
rechtzeitig
redenen,
regels,
regio.
reikt
reizen,
rekenen.
relation@@
rem
remix@@
rende
reservaten
resistent
restaurants
richting.
riecht
rijk.
ro.
roman
rood,
rufen.
ruggen@@
ruimteschip
rum
sagst
samenhan@@
samenleving.
samenwerken,
samenwerken.
scala
scannen
scen@@
schan@@
schappen,
schermen
schlafen
schneller.
schnellste
schouw@@
schran@@
schrijf@@
schru@@
schub@@
schuldig@@
schwarz@@
schwei@@
schüttel@@
scoop
se?
sectoren
sensoren
sicherzustellen,
sichtbaren
sing
sitze
sloppenwijken
sme@@
snu@@
solches
sonst@@
sorgen.
soziales
spaar@@
spezif@@
splant@@
sprechen@@
sprechend
ss-@@
sse,
ssel
starb,
stark,
starkes
statt,
stehende
steht:
sterfel@@
sterrenstelsel@@
stich@@
still
stip
strekt
stro
studieren.
ständen
subt@@
super
suspend@@
symbolische
symmetrie.
symptomen
systeem@@
systems
tak
technologieën.
tel.
tend,
tentoon@@
teri@@
thuis,
tica
tisch@@
toevall@@
tow@@
tradities
transist@@
treu
tril@@
tritt,
tsun@@
tuigen.
tun?"
tut@@
twijfel@@
types
typischen
tötet
ube
uiter@@
uitgegeven
uitmaakt
unen
unglücklich@@
ungs
ungsn@@
ungsprozess
uns:
unterrichten,
unterrichten.
unterscheiden.
unterstützt.
vage
vanda@@
varing
vechten,
vechten.
veranderd,
veranderen?
verbann@@
verbaz@@
verbeteren,
verbre@@
verderop
verdiende
verdrin@@
verga@@
verhindern.
verhuisde
verkeerd.
verklaringen
verlagen
verletzt
verlin@@
vermindert
vermisch@@
vermögen
veroorzaakt.
verschil@@
verschillen.
verschle@@
verschmutzung
versies
versnellen
verspreiden,
versteckten
vertra@@
vertragen
vervol@@
vervorm@@
verwa@@
verwachte
verwendeten
verwerk@@
verzamelen.
vezel@@
vio@@
vleu@@
vleugel@@
vloed
voegt
voertuig
volgende:
volhar@@
voll,
voorkomen,
vormden
voudige
vraa@@
vraagstukken
vresel@@
völl@@
w!
waard.
waff@@
wagen@@
warfen
warum?
wassen
weerstand
weich@@
weil@@
weit,
weit.
weitaus
wellen
weltweit.
werkend
werpen
wertvolle
wesent@@
west
wetenschappen.
wezen,
wezen@@
wick@@
woanders
wollen?
wow,
wählen.
wärts.
yan
zaal.
zee-@@
zeker,
zeren
zeugung
zichzelf,
ziekenhuis.
zigern
zinvol
zonnestelsel.
zo’n
zuge@@
zugrunde
zuletzt
zurei@@
zurzeit
zurückgehen
zuur
zweiter
zählen.
°@@
Äuß@@
Één
Überzeugungen
ähl@@
äischen
äle
älteste
änger
öffnen.
öfter
überlegen,
üblicherweise
ünsch@@
β@@
„Das
"Alles
"Deze
"Ein
"He@@
"Lasst
"Na@@
"O,
"die
'"
'000
-jährigen
-und-@@
.S.@@
.com.
170
17e
1980
1985
2030
250.000
3,3
4,5
40%
50ern
70,
80er
?".
Aange@@
Abkommen
Achil@@
Afghanistan.
Akk@@
Alla@@
Allig@@
Amerikas
Amor@@
Amy
Angelegen@@
Angelegenheiten
Angeles,
Angesicht
Angio@@
Anstelle
Anstrengungen
Antarctica
Antarkt@@
Antarktis
Anten@@
Anton@@
Antrieb
Anzeichen
Arbeiter@@
Artefa@@
Arten.
Assist@@
Aufstie@@
Augu@@
Ausgangs@@
Autismus
Autom@@
Bagda@@
Balken
Bang@@
Bauch
Baumwoll@@
Beachten
Beam@@
Beck@@
Bedien@@
Begrijp
Bemer@@
Benn@@
Bestimm@@
Bezo@@
Blat@@
Boeddha
Brazilië.
Bun@@
Cana@@
Canada,
Catherine
Chef@@
Chemik@@
Chop
Cir@@
Clon@@
Cockta@@
Computers
D.C.
D:
Dauer
Deng
Denkens
Deutsch@@
Diagnose
Diagram@@
Diejenigen
Ding.
Diver@@
Dog@@
Door@@
Drie@@
Du,
Durchbruch
ED:
Ebenso
Ecken
Eens
Einfluss@@
Eis,
Eisb@@
Enceladus
Endeffekt
Entscheidungen,
Entwickl@@
Entwicklungen
Entwür@@
Ergebnis,
Erinnerungen
Erkenntnis,
Exp@@
Experiment.
Extra-Dimensionen
F.
Falle
Fat@@
Fehler.
Felder
Fic@@
Filmen
Finan@@
Firma.
Fische,
Fischer
Florida.
Flüchtlingslag@@
Foo@@
Foto,
Fow@@
Freder@@
Freiheit,
Freunde.
Front
Fung@@
G.
GB:
Gaan
Galapag@@
Galva@@
Gedächt@@
Gedächtnis
Gefahren
Gefängnis@@
Gefühle,
Gegenstände
Gegenwar@@
Gehirns,
Genie
Geor@@
Georgetow@@
Georgi@@
Geschwindig@@
Geschäft.
Gesetzen
Gestalt
Gewalt,
Gewehr@@
Gewiss@@
Ghra@@
Glenn
Global
Glücks
Gom@@
Grat@@
Green
Grundlagen
Gruppen,
H5N1
HT@@
Halt@@
Harris
Hawa@@
Hefe
Heim@@
Herangehensweise
Hersteller
Herzin@@
Herzkrank@@
Hill
Hof
Hop@@
Hotel@@
Hyder@@
Hydro@@
Ier@@
Ihn@@
Illusion
Imit@@
Indonesi@@
Infrastruktur,
Innere
Innovation,
Institutionen,
Intelligenz.
Interessanterweise
Internet-@@
Island,
Isol@@
Italien
Jackson
Janu@@
Jeman@@
Jennifer
Jim@@
Jimmy
Job,
Jones
Joy@@
Juli
K,
Kalifornien,
Kalifornien.
Kie@@
Kim
Klimawandel,
Konflikte
Konstruktion
Kopf-@@
Kortom,
Künstlern
LHC
Landes,
Large
Laurie
Laut
Leb@@
Lebensstil
Libellen
Libr@@
Life
Limon@@
Linie.
Linus
MA@@
Mag
Materie,
Mathematik,
Mauer
Meinungen
Meisje:
Melk@@
Messungen
Michel@@
Mikroskop
Mitgefühls
Model@@
Monat.
Monaten,
Mongol@@
Monterey,
Myhrvol@@
Mä@@
Möglich@@
Möglichkei@@
NK:
Naarmate
Naast
Nacht.
Natas@@
Natürlich,
Netzwerken
Neuigkeiten
Nordamer@@
Nov@@
November
Nug@@
Nuklear@@
O'@@
Oceaan.
Ongeloof@@
Open-@@
Osten,
P:
PCB@@
Pak@@
Paris
Parkin@@
Past@@
Pep@@
Perfe@@
Plotseling
Prakas@@
Prior@@
Prioritäten
Privileg
Prize
Produkt@@
Produktions@@
Prototyp
Prozentsatz
Prozesses
Prü@@
RC@@
Rechenleistung
Recher@@
Reise,
Roose@@
SO@@
Sad@@
Satelliten
Schmu@@
Schweine
Sci@@
Seatt@@
Sexual@@
Shakespe@@
Sieht
Sle@@
Spaß,
Speicher
Speicher@@
Splashy
Spreng@@
Squ@@
Staa@@
Stahl
Standard
Statu@@
Sterne,
Strang
Strich@@
Struktur.
Sty@@
Sub-@@
Sweene@@
Sym@@
Synthese
Tage,
Tai@@
Talente
Tansania
Technologien.
Teig
Temperatur@@
Temperaturen
Tieren,
Time@@
Top
Trenn@@
Tso@@
Tul@@
Tumor
Tun@@
Ty@@
Täusch@@
U.@@
UC@@
Umfang
Umweltschutz@@
Universum@@
Urugu@@
Ushahidi
Vakuum
Valde@@
Vergelijk
Vergessen
Verhalten@@
Verschie@@
Versorg@@
Versuche
Veränderung,
Vogelgrippe
Voraussagen
Vorbild
Vorschlag@@
Wacht
Warren
Weisen
Weltall
Weltbank
Wereldbank
Wesen.
Wide
Wik@@
Witte
Wohl
Wun@@
X,
Zahl,
Zeker
Zig@@
Zufäll@@
Zugriff
Zullen
Zustand,
aanpakken
aanraking
aans-@@
aar?
abend
absorb@@
ach.
ache
achtung
actische
aden,
advocaat
afel
afgel@@
agu@@
algemeen,
alisierung,
alismus.
aliteit,
alltäglichen
als.
ana.
analyseren
anen@@
angeblich
angebracht
angeht.
angekommen
ann
annähernd
ans,
anse
antreiben
anwenden,
anzusehen.
apart
appel@@
arabischen
arche@@
arten,
artiger
artph@@
associ@@
at:
atho@@
ators
auf:
authentiek
auto's.
autonom@@
autonome
autozit@@
auß@@
avontuur
baarder
bab@@
bacteriën.
bakter@@
ban
band,
bang.
bankreken@@
barriè@@
bedoelen
beeinflussen,
befassen
befin@@
begrenzten
behandelingen
behaup@@
belachelijk
beliebigen
beliebtesten
beln
benaderen
benann@@
benenn@@
benötigen.
beperking
beschouwen.
beschäftigen.
besliste
bestrij@@
bestudeert
betonen,
betreft,
betrouwbaar
beweeg
beweeg@@
bewerk@@
bewirken.
bewon@@
bewusst@@
bezeichnet.
bir@@
blick@@
blicken
bo,
bohr@@
boom,
botsing
box
bring@@
brood.
bruch@@
bruggen
budge@@
buik
buis
bult@@
by.
bö@@
cab@@
camera.
carbon@@
ch!
charis@@
chester
cht."
chtige,
chtigen
comfor@@
communicatie.
compass@@
condition@@
connectie
controle.
copyrig@@
cymati@@
d'
daad@@
daarboven
dadurch,
das:
dasselbe.
dazwischen
deelt@@
demokratischen
denden
dergelijks.
deur.
dien,
differ@@
dimensie
din
dip@@
diss@@
doodt
draait.
drahtlose
drauf
dreidimension@@
droom.
du?
duistern@@
dwar@@
eenvoudigste
eerst,
effiziente
effizienter
ehe
ehl
eindeut@@
eingesetzt.
eit,
elegant
elli
emin@@
end:
engage@@
engineer@@
enquê@@
enschaft
entdeckten
entjes
entsprechende
entstehen,
enzen.
enzi@@
enzo@@
epen
erb@@
erectus
erfinden,
erfun@@
erhielten
erlei
ernähren
erscheinen,
ersetzen.
erstaunliches
es"
essentiële
etnische
eurer
eutische
ever@@
evolutionäre
ewig
experimentele
explic@@
express@@
expressie
fantasie
fehlt,
fens@@
fijn@@
fit@@
fliegenden
formeerd
fried@@
frühe
functie.
fundament@@
fär@@
gangers
gassen
gebau@@
geblieben
geboten
gebruiker
gebu@@
gecombineerd
gecon@@
gedachten,
geeignet
geerd
gefinancierd
gefra@@
gegener@@
gehabt,
gehören,
gehört?
gekend
gelassen,
geleef@@
gelegenen
gelesen,
geloof.
gelukskoe@@
gelukt
gemeenschap@@
gemeenschaps@@
genezen
genieten.
genoc@@
genoegen
gentie
geometr@@
geop@@
gerade.
geraden
geraten
gerichte
gern,
geslacht
geslachts@@
gespro@@
gestelde
getr@@
gevaarlijk@@
gevangene
gevangenen
gevangenis.
geve@@
gevecht
gevoerd
gevouwen
gevraa@@
gewee@@
gewijd
gewonnen,
gezicht,
gezogen.
gezw@@
geïnstalle@@
geïnvesteerd
gibt's
gien
gier
glimp
globales
gordel
graan@@
gradu@@
gras@@
griff
grosser
grot
groter,
grupp@@
grün
gt?
haber
haft.
hall@@
halt.
handen,
handige
haten
heen@@
herab@@
herausfand,
herausra@@
herkenn@@
herkenning
herkent
herumzu@@
hervorzu@@
heup
heut@@
hiernaar
hinauf@@
ho
hoefde
hoek@@
hoeveel@@
honden@@
hoogte.
hoort,
huid.
hulp,
hungrig
hyp@@
hyperbolische
hè?
höhe
hörte,
i?
ib
ich?
icit@@
ide-@@
idealen
identificeren
identifizieren
ierbar
iesysteem
igend,
igte,
ije
ijn,
ijnse
ika.
imag@@
import@@
indire@@
infecties
influenza@@
infrastructuur.
ingredi@@
ingrij@@
ingssyste@@
inkl@@
innovatie,
innovatieve
institutionele
intelle@@
interacties
intrig@@
investeerders
involviert
io@@
ior
ip-@@
irgendeinen
ironisch
isch?
ish@@
isst
iste.
itali@@
itäten,
iveau.
iven.
iër@@
ject
jemandem,
jene,
jij,
jongen.
juridisch
kameel
kamera
kamp.
kato@@
keiten,
kelder
kip
kko
kleuren.
kliniek
kne@@
knüpf@@
koe
kom.
kommunik@@
koor@@
koorts
kopiëren
koppelen
kostet,
kriege
kugel
kundig
kus@@
kust,
körperlichen
kümmern.
kür@@
laagste
lampen
lands@@
lange.
langfristig
langsam,
lassen?
laufe
lebten,
ledemaat
leeftijds@@
leerd.
leeren
leert.
legen@@
legendarische
leid@@
lelijke
lenen
lern
letje
lex
lich?
lichten.
liebe.
lieben@@
liefdadig@@
liefen
liegenden
lip@@
litten
locatie,
lopend
luchtvaart@@
lösen@@
lösung
lück@@
manage@@
manier@@
mariene
marsch@@
massa.
matige
md.
meerd
ment-@@
ments@@
meters
metro
microfoon
middel.
mieren.
milieu.
ministerium
misdaden
mmt.
moedig@@
nachgedacht,
nachtelijke
nal@@
naï@@
ner,
nestonderhouds@@
neun@@
nicht:
niedrigen
niedriger
nieuw,
ning
noodzakelijke
normales
notwendigen
nummers
nur:
obere
objec@@
observ@@
ologien
omhoog@@
ommen,
onderling
ondermijn@@
onderscheiden
ontastbare
ontbreekt
ontra@@
ontworpen.
onwaarschijnlijk
ony@@
open-@@
opgebla@@
opgelo@@
optreden
opvall@@
opwe@@
organisatie,
orien.
ous
overdracht
overduidelijk
overheer@@
overheid.
pakt.
pakten
paro@@
pauze
percent
perfekt.
persoonlijkheid
perspectief.
pflanz@@
pft
phil@@
pho@@
plann@@
pleit
politiek,
politik
poo@@
praktiz@@
precieze
prestaties
preventie
producent
proef
programme
propag@@
psycho@@
pupp@@
pur@@
puzzels
qualifiz@@
quäl@@
raak@@
radikale
rasch
reagieren,
rechnen,
rechten,
redac@@
regeln
regen.
regist@@
rem@@
ri
riff
rimp@@
ritme
ritueel
ruiken
rums
rutsch@@
räte
samenleving,
schakelen
scheppen.
schieten.
schijnbaar
schimmels
schlimme
schlägen
schmutz@@
schnell@@
schneller,
schreef,
schrieb,
scht,
schudden
schweren
schwimmen.
seconde.
sedi@@
sehen:
sein;
selbst-@@
selijk
selijke
sens
sensus
servic@@
sfeer
sität
skeletspieren
slag,
slapen.
sneeu@@
sneeuw@@
snelweg
soldaten.
soort@@
spart@@
spezifische
spiegel.
spontane
spuit
spüren,
stabiele
statische
stattgefunden
steekpenn@@
stehenden
stellingen.
stemming
stere@@
steuern.
stijd
stimuleren
stip@@
stoff,
stoff.
ston
stoß@@
straat,
stralen
strat@@
strategisch
strau@@
stronauten
struc@@
studie.
stuw@@
suik@@
sun@@
surf@@
sus@@
sych@@
system.
süchtig
talloze
technik
teerd,
tegengestelde
teilte
tele
tens:
termijn.
teuer.
teurer
teurs
tevoren.
tica.
tier
tieven
tiviteit
tnis
toekomst@@
toenemen.
toestellen
toewijding
tomatens@@
toren
trennen
trinkt
trivi@@
tung,
twee-@@
tödliche
töten,
u-@@
uitdrukkingen
uiten.
uiterste
uitrust@@
uitvoeren.
uitvoering
ul.
ultim@@
ultimative
umkehr@@
unge
unglaublich,
unglaubliches
ungsmittel
ungsprogram@@
unsterb@@
unterhalt@@
unterhalten
unternehmer@@
unterschiedlicher
up-@@
urbane
uz@@
veiligheid@@
veling
verander
verbazing
verblüffende
verbraucht
verbreiten.
verdieping
verhogen.
verjaar@@
verkaufen,
verkochte
verkracht
verlan@@
verlaten.
verliezen,
vermaa@@
vermeiden.
vermittelt
vernieu@@
verontrust@@
verple@@
verrast
verrat@@
verscheen
vertaald
verteilen
vertic@@
vertonen
verursachen.
vervul@@
verzweifelt
veröffentlicht,
video,
vijanden
visualisatie
vlakbij
vluchtelingen
vocht
voedt
voelt.
voetbal@@
vogels,
volg
vonden,
vooraan
voorkomt
voraus,
vuilnis@@
vulk@@
vö@@
wachsen@@
wachten,
wahrgenommen
wanhoop
wapen
war's.
wechsel
wederom
weerk@@
weiblichen
weis
weitgehend
weken,
wer,
wesen
wiederzu@@
wind,
windmol@@
winkel,
winkels
winnaar
wirkt.
wirtschaftliches
wiskunde@@
worpen
wort@@
wunderbar,
wärts@@
wünsche
yll@@
yo@@
zachte
zellen,
zeugen
zich,
zingen.
zingt
zir@@
zog,
zonnestelsel@@
zuidelijk
zuneh@@
zusammenhän@@
zweef@@
zwischen@@
zählen,
Ökosysteme
älen
änen
äufe
überwinden
überzeugen
ühr@@
ünst@@
–,
—@@
“Ik
"Doe
"Geef
"Kan
"Lie@@
"War@@
"Wat@@
"Wo
"Ze
"ik
%@@
'Ik
.org.
000.
12,
12-@@
1858
1918
1975
1996
2.500
2/@@
2004.
2008.
22.
400.000
47.
57
8%
AG:
Adop@@
Alfre@@
Algen
Altern
Amei@@
Amerikanen.
Anhän@@
Anpass@@
Anpassung
Anwal@@
Aquarium
Aristotele@@
Arkansas
Armut.
Arten@@
Atheisten
Atlantik
Atmo@@
Auslö@@
Ausschau
Ax@@
BN@@
Bakterien@@
Bangalore
Barb@@
Begeisterung
Begrün@@
Beij@@
Belastung
Beobachtung
Berufs@@
Betrag
Bezir@@
Blair
Blan@@
Blogger
Bomben
Boven@@
Box
Bruchteil
Bä@@
Bär@@
Caf@@
Carolina,
Carolina.
Chanc@@
Chicag@@
Clark
Columbi@@
Cooper@@
Count@@
Cub@@
DA
DNS
Da,
Daarover
Dank!
Dank@@
Dankzij
Daraus
Darf@@
Debat@@
Dec@@
Dialog@@
Dienst@@
Dimit@@
Diskussionen
Doktor
Domin@@
Dosen
Dschun@@
Dutz@@
Däch@@
Dörfern
E,
EU
Edward
Ein-@@
Einkommen,
Einkommens@@
Einrichtung
Einwohn@@
Emmanuel
Engeland.
Entweder
Erschaffung
Erzieh@@
Est@@
Evel@@
Ewig@@
Expor@@
Fakult@@
Fangen
Fangschrecken@@
Fid@@
Firmen,
Flüsse
Fortpflanz@@
Fotografen
Frau@@
Freiwilligen
Friede
Front@@
Förderung
Gab@@
Gebrau@@
Gelände
Geo-@@
Gesundheit.
Gesundheitssyste@@
Gewässer
Gig@@
Glam@@
Glied@@
Glä@@
Glücklich@@
Glückske@@
Green@@
Grenzen,
Groot-Brittann@@
Groot-Brittannië
Gross@@
Großvater
Gruppe.
Guine@@
Gul@@
Gur@@
Guten@@
H-@@
Handy,
Hause,
Haushalts@@
Head@@
Heilung
Herangehens@@
Herrn
Hierarchie
Hilfe,
Hindernis
Hindernisse
Homin@@
Hubschrau@@
Hör
IC@@
Ieman@@
Illu@@
Immer@@
Immunsystem
Inderdaad,
Innovation@@
Insek@@
Instan@@
Instituut
Interakti@@
Jaa@@
Jacqu@@
Jahrhunderte
Japann@@
John,
Jä@@
Kanada
Kandidaten
Kel@@
Kibera
Kilometern
Kindern.
Kiste
Klau@@
Kleider
Kleider@@
Klimaan@@
Knoten
Kollegen,
Kontro@@
Konzentration
Kopern@@
Korea,
Kram
Kreaturen
Krebs.
Kreu@@
Kuh
Kämpf@@
Käse@@
Königsko@@
Kör@@
Küsten@@
LOLcats
Lake
Langleb@@
Laser
Lebensunterhalt
Lego@@
Leser
Leucht@@
Lieb@@
Link
Luc@@
Lynn
Malediven
Mall@@
Markt,
Massachusetts
Massenaus@@
Mathe@@
Maßnahmen
Meer.
Meerjung@@
Mich@@
Mikrof@@
Mississippi
Mist@@
Mister
Moeten
Mola's
Moskiton@@
Moskitonetze
Mr@@
Musikstück
Mustern
Mäuse
Natuurlijk,
Nebenwir@@
Neugier@@
Nicht,
Nix@@
Nobel@@
Nollywood
Notwendigkeit
Null.
OL@@
Ok&amp;eacute;.
Olympischen
Ondertussen
Ooit
Optimismus
Orgasmus
Ozean,
P,
Papa,
Papp@@
Pestizi@@
Pfad
Pfun@@
Physik@@
Pilze
Pist@@
Plan.
Planet,
Poe@@
Post
Premierminister
Produkten
Produktion@@
Produzenten
Projekts
Pyram@@
R.
Raleig@@
Rap@@
Raumschiff@@
Reed
Regierung.
Reise.
Rhythmus
Richard.
Ries@@
Rituale
Robotern
Rom
SIe
Samu@@
Sangham@@
Satur@@
Schin@@
Schließ@@
Schreibtisch
Schöne
Seht
Selbst,
Seri@@
Service
Show.
Sim@@
Ski
Ski@@
Slu@@
Smit@@
Soldaten,
Sollte
Somali@@
Soph@@
Spektro@@
Sput@@
Stadi@@
Stammes@@
Stanford.
Stellt
Sterber@@
Straßen,
Street,
Streifen
Stück,
Surve@@
Swahil@@
Symmet@@
Symmetr@@
Sätze
Südpol
TEDMED
TV@@
Tech@@
Telefone
Tempel
Terra@@
Tier,
Toky@@
Traditionen
Trag@@
Transparenz
Trennung
Trie@@
Turk@@
Tut@@
Tänzer
Töne
Türkei
U,
Universität,
Unru@@
Unsicher@@
Vas@@
Veiligheids@@
Verantwor@@
Verbindungen,
Verk@@
Verkauf
Vertrie@@
Vinc@@
Viol@@
Virgin@@
Vom
Völker
Völkermord
Wahl,
Wahrheit,
Wahrheit.
Wats@@
Weblog@@
Weiter
Wereld
Wert@@
Werte,
Wiederhol@@
Wiki@@
William@@
Wire@@
Wissen.
Wohnwagen
Worauf
Worldchang@@
Wort.
Wort@@
Wunsch,
Wy@@
Ya@@
Zee@@
Zeichnung
Zeile
Zeitschrift
Zeitschriften
Zeitungs@@
Zelle,
Zuhaus@@
Zuhör@@
Zusätzlich
Zweitens:
aald
aandoeningen
aangesloten
aanpassing
aanzien
aardig@@
ablen
absoluten
abyte
achterover
act
adr@@
adv@@
advert@@
afgestude@@
afra@@
agram@@
ais@@
akte
ala.
alcohol@@
ale@@
alen@@
alisering
alsjeblieft.
alten,
alternative
althans
ambulan@@
angenommen,
angeschau@@
angio@@
ani
anten.
antwoord,
antwoordde:
antworten
arbeit,
arbeitete.
ard@@
arischen
arktischen
artiesten
assoc@@
asteroïde
ate,
aties@@
ausführ@@
ausserhalb
aut
aß
b:
baa@@
baarheid,
baby.
bandbreedte
banis@@
bar?
basis,
bat,
beachten
bedeuten,
bedeuten.
bedeutete
bedreiging
bedrijfsleven
bedroht
beenden.
befrie@@
begegnen
begeistert,
begleitet
behauptet,
behoeften.
bekendste
bekommen?
belangrijkste,
beno@@
benötig@@
bepal@@
bereiten
beroe@@
beroeps@@
beschaving,
beschäftigte
besef@@
beseft
bespre@@
bespro@@
bestanden
besteden.
besturen
besuchen,
betekenen.
betrifft.
bevin@@
bijeenkomst
bijen@@
bijzonder.
biosfeer
bizar
bladen
blicken,
blind@@
bloei@@
blootgesteld
blootstelling
blä@@
bod
boos
bos.
bovendien
brem@@
brengen?
brid@@
broek
brun@@
bungen
bureau.
buurt,
by,
büchern
büro@@
cara@@
catalog@@
catastro@@
chaos
char@@
chtes
cklich
cle@@
colum@@
complexer
composit@@
context,
continue
conversatie
coo@@
cris@@
cties,
ctische
d".
da?"
daags
dal
dalen.
dar
datab@@
database
davor,
deeld
deerd
definieren.
delijkheid
delt.
dent
derzeitigen
deur,
dge
dic@@
dichter@@
dichtstbijzijnde
diplomat@@
disch
distribut@@
diversit@@
doos.
dorthin,
dozijn
dramatisch.
dreef
dreidimensionalen
dreieinhalb
dringende
drinkt
drängt
drüben,
duinen
duistere
dun
durchführen,
durchgeführt,
durfkapital@@
durfte
dus@@
dy,
dürfen.
e...
econ@@
ect@@
eenvoudig,
eenvoudigweg
effectie@@
effektiver
ehemalige
ehrlich,
eigenschappen.
eindelijk,
eindigde
eineinhalb
einfallen
einstellen
einzig
ektor
elden
elegante
elektriciteit,
elektromagnet@@
elf
elijk:
eltje
elu@@
empfehl@@
empfind@@
empfinden
empfindlich
endet.
englische
engte
entheorie
enthält.
entieel
enties.
ents
entschlüss@@
eor@@
erbij.
erfol@@
erg,
ergeben.
erkunden
erledigt
ermittel@@
erschüt@@
erseits,
ert@@
ervaringen.
este
ethnische
euch.
evenals
eviden@@
ewi@@
existierenden
face.
fahrts@@
families.
fanden.
fantastisches
farmac@@
fascinerend.
feiten.
fenis
fenomen@@
fessel@@
fictie
films.
financiering
finanzielle
ford
formt
freier
fress@@
freut
fu
fuhr,
funktionier@@
funktionierte.
fysicus
garten
gearrest@@
gebildet,
gecompliceerde
gedron@@
gefocu@@
gefotografeerd
gegen.
gegründet,
geha@@
gelanc@@
gelehrt
gelen
geliefer@@
gelijk,
geling
geln,
gelte
gelten
geluid@@
gen".
genann@@
gendste
genen,
gerechtsho@@
gerelateerde
gerufen,
gerung
geschah.
gescheh@@
geschich@@
geschicht@@
geschickt,
geschlagen,
geschäft@@
gesetzte
gespielt.
gesprek.
gesproken,
gestür@@
getestet
getrans@@
getuige
gevoel.
gevormd.
gewachsen
gewar@@
geweldda@@
gewiesen
gewis@@
gezeg@@
gezet@@
gezonden
glamoureus
glas.
gli@@
glücklicherweise
goed?
gooide
gooien,
grappig.
greifen.
grenzen,
griep.
groeiden
grootou@@
grootte,
grun@@
grä@@
grösste
haai
hallucinaties
harige
haupt
heeng@@
heilig
herausgestellt,
heroï@@
hervor.
hetzelf@@
hinovi@@
hinzufügen,
hinzufügen.
hiërarchie
hoe,
hohem
hond@@
hulpmiddelen
hydrat@@
hypothet@@
hänge
häus@@
höl@@
idee:
iel.
iele
ielle
iers@@
iesen.
ign@@
iler
imin@@
immateri@@
immuunsysteem
ingang
ingenieurs@@
ini
inne@@
innen@@
inschatten
insk@@
institu@@
instructies
intervent@@
interviews
intimiteit
ire,
irrationeel
isierten
itionen
ië@@
iëren
iö@@
jagers
je."
je?"
jeder@@
jegliche
jeweil@@
juni
kabel@@
kampi@@
kantel@@
kapitaal@@
kasten
kdo@@
kete
keuken
keuze@@
kijkend
kik@@
kleding@@
klicken
klom
kombiniert
kommerzielle
komplexer
konden.
kontrollieren,
kooldioxide
koolwater@@
kosmischen
koste
kron@@
krui@@
kular@@
kurz@@
landbouw,
laser@@
leere
leert,
leeu@@
legung
lett
lette
level
leverde
lichts@@
liegende
lohn@@
losse
lost
löst
maal,
maaltijden
maat@@
machines,
magazin@@
magazine
makend
malen.
mangel@@
mar
maschinen
mechanica
medicijnen.
meedoen.
meine.
meinte,
menschlich
methodes
mezelf,
mis.
misbruik
mishandel@@
mitnehmen
mno@@
mode-@@
modell,
molekulare
monster
moslims
multination@@
muzikanten
mächtigen
nachhaltig@@
nacht.
nachtmer@@
namen.
ne?
nebenbei,
negatief
nenn@@
neocor@@
neuronen.
neven@@
ngo@@
noch?
nomin@@
noodza@@
noordoo@@
norm
notwendig,
nuklearen
num@@
nuttel@@
nähr@@
obesit@@
object,
ognit@@
ographie
oktober
ollabor@@
olle@@
omatopo@@
ometer
omgeven
omgezet
onafhankelijk@@
ondoor@@
online,
ontworpen,
ooit.
ooit@@
oorspronkelijk
oost@@
oosten
oots@@
op."
opfer@@
ophouden
opslag@@
opspor@@
optimale
optimistisch.
opzichten
organisatie.
orien
ortho@@
ouderen
ouverneur
overal,
overbrengen
overdag
overgewicht
palm@@
passag@@
pasten
patiënten,
pensio@@
periode,
pern
pers.
pfei@@
pflanzen.
phan@@
pijnlijk
pik@@
plaatjes
place@@
plannen.
planning
plezier.
polar@@
politiek.
pols
pond
porno@@
postconflict-@@
potentiële
poëzie
prat@@
presentatie.
presenteren
prijs,
prinzip@@
proberen,
producten,
productie,
produkte
provincie
pru@@
psychologisch
puzzel
quis@@
reactie.
realiseer
rebell@@
rechten.
rechten@@
rechtvaardigheid
recor@@
redete
redu@@
reduziert
reform@@
reich.
relatieve
reput@@
retro@@
revolutie,
rigor@@
rivier.
roken
ruit@@
rustig
räumen
s'.
sage.
salar@@
satelliet@@
sauber
schaa@@
scheiden
scherp
schiet
schijf
schijnt
schoonheid,
schoonheid.
schreeuw@@
schwierigsten
schäd@@
schätze
seconden,
seks@@
seltsam.
sen?
separ@@
serieus.
sha
sichten
sieh@@
sind."
sinkt
sites
slijn
sloppen@@
slot,
smer@@
smokkel@@
snaartheorie
snelheid,
snijdt
software,
software.
sorge
sorgt
sorry,
sozu@@
specialis@@
spectaculaire
spectro@@
spekt@@
spenderen
sperr@@
spitze
spora
ssig
sst.
staart.
stabiel
stammt.
stands
stap.
star
starb.
steen.
sterfte
sterrenstelsels,
stimmen.
stoel.
stok@@
strijk@@
stromen.
stroomt
ström@@
studierte
stuit@@
stunts
ständig.
stärk@@
subst@@
succe@@
synap@@
systemat@@
säu@@
süß
t's
tafel.
tapijt
techno@@
tegelijker@@
teit
tekent@@
tekst@@
telefoontje
tend
terende
tert,
terugkeren
tete,
tex,
text
tiener@@
tifiz@@
tijdstip
toch.
toene@@
toer
toetsen@@
toevoer
tograf@@
touw@@
tragisch
tragische
trainiert
traject
treib@@
treiben.
tritt.
troo@@
tropische
träumen
tsel@@
tuigen
tunn@@
töd@@
ue@@
uitdrukk@@
uitgaan
uitgero@@
uitgesproken
uitvinder@@
umgeb@@
umkrei@@
umsonst
unbekannte
unend@@
universeel
ursach@@
uton@@
vaak.
vals
vanmorgen
vatten
veranker@@
verantwortungs@@
verbanden
verbondenheid
verboten
verbringen.
verdubbelen
verdwijnt
verfolgen,
verfügbar.
vergroten
verknüpft
verkozen
verlangen,
verlangen.
verlichting
verlor
verminderen,
vernachläss@@
verneder@@
veronderstelling
veroorloven
verpflicht@@
verschillen,
verschuiv@@
versie.
verspür@@
vertei@@
vertret@@
verwerken.
verwirrt
veröffent@@
veröffentlichten
vest
vic@@
vijan@@
virus,
vlakke
vlees@@
vlieg
vliegtuig,
vliegtuig.
vocht@@
vogelgriep
volk.
vollständige
voorkom@@
voortkomt
voorzien.
voorzieningen
voorzitter
vor:
voraus@@
vorhanden.
vrijheid.
vroegere
vrou@@
wa.
waarderen.
waarschijnlijk,
waarschijnlijkheid
wahrhaft
wale
wanden
web.
werf@@
wilde.
winkelcentrum
winnen,
wir:
wisselen
woon
wuch@@
wuchsen
wurzel@@
wächst,
x-@@
ye
yn,
zaad
zeichnet,
zern
zerstören.
zielen
zielt
ziene
zip@@
zivil@@
zuchtige
zusammens@@
zuta@@
zuurstof.
«@@
Ärger
Überein@@
à@@
ã@@
ärger@@
äugige
ïne
öt@@
überaus
überrascht,
übertrag@@
übliche
üsse
!“
"Ein@@
"Jij
"Kijk,
"Können
"Niet
"Star
"Un@@
"Y@@
"das
"het
-ko@@
.S.
0.@@
1.500
13.
14.
1900
1949
1982
1993
19de
19e
2005.
2100
29@@
4%
4-@@
60ern
62
67
8-@@
80.
80.000
9/@@
AIM@@
AK-@@
Abnahme
Acker@@
Affe
Alexandr@@
Alter,
Alumin@@
Amazon
Ambulan@@
Amer@@
Amerikaner.
Amsterdam
Anal@@
Angriffe
Anspruch
Arizon@@
Armstron@@
Ate@@
Aufklär@@
Ausgangspunkt
Autos.
BNP
Bahn
Bangladesh.
Barric@@
Bauer
Beglei@@
Begrenz@@
Beine.
Beispiele,
Bekijk
Benutzer
Bereiche,
Beton@@
Betriebs@@
Bilder@@
Billi@@
Blutgefässe
Boein@@
Bono
Bren@@
Briefe
Bril@@
British
Brothers
Bucht
Buckminster
Börse
Bühnen@@
Büro.
CB@@
Cargill
Charakterist@@
Charta
Chicago,
Christus
Cl@@
Clip
Costa
DDT
DNA-Origami
DVD
Dame,
[...]
